{
  "src_word2id": {
    "<pad>": 0,
    "<s>": 1,
    "</s>": 2,
    "<unk>": 3,
    "，": 4,
    "shi": 5,
    "de": 6,
    "yi": 7,
    "。": 8,
    "ji": 9,
    "zhi": 10,
    "bu": 11,
    "wei": 12,
    "you": 13,
    "ren": 14,
    "li": 15,
    "zhong": 16,
    "、": 17,
    "jian": 18,
    "zai": 19,
    "zhe": 20,
    "he": 21,
    "guo": 22,
    "yu": 23,
    "“": 24,
    "”": 25,
    "gong": 26,
    "qi": 27,
    "xing": 28,
    "dao": 29,
    "jin": 30,
    "da": 31,
    "xian": 32,
    "jie": 33,
    "fa": 34,
    "zi": 35,
    "jing": 36,
    "jia": 37,
    "hui": 38,
    "xiang": 39,
    "le": 40,
    "yuan": 41,
    "fu": 42,
    "wu": 43,
    "cheng": 44,
    "zheng": 45,
    "chu": 46,
    "sheng": 47,
    "ye": 48,
    "fang": 49,
    "ge": 50,
    "xin": 51,
    "xi": 52,
    "shang": 53,
    "guan": 54,
    "ti": 55,
    "zuo": 56,
    "yao": 57,
    "xiao": 58,
    "di": 59,
    "bao": 60,
    "zhu": 61,
    "tong": 62,
    "ta": 63,
    "ke": 64,
    "dui": 65,
    "jiu": 66,
    "hua": 67,
    "ju": 68,
    "shen": 69,
    "shou": 70,
    "hai": 71,
    "yan": 72,
    "chang": 73,
    "qu": 74,
    "mei": 75,
    "men": 76,
    "wen": 77,
    "er": 78,
    "ying": 79,
    "qing": 80,
    "bei": 81,
    "lai": 82,
    "shu": 83,
    "wang": 84,
    "dong": 85,
    "an": 86,
    "qian": 87,
    "dan": 88,
    "she": 89,
    "yang": 90,
    "jiao": 91,
    "zhang": 92,
    "yin": 93,
    "quan": 94,
    "wo": 95,
    "huo": 96,
    "liang": 97,
    "jiang": 98,
    "hou": 99,
    "dian": 100,
    "si": 101,
    "ci": 102,
    "ming": 103,
    "du": 104,
    "neng": 105,
    "：": 106,
    "xie": 107,
    "zhan": 108,
    "nian": 109,
    "dang": 110,
    "yong": 111,
    "ru": 112,
    "biao": 113,
    "duo": 114,
    "hao": 115,
    "xue": 116,
    "gao": 117,
    "shuo": 118,
    "min": 119,
    "fen": 120,
    "dai": 121,
    "mian": 122,
    "xu": 123,
    "deng": 124,
    "ding": 125,
    "xia": 126,
    "ban": 127,
    "fan": 128,
    "mu": 129,
    "kai": 130,
    "dou": 131,
    "fei": 132,
    "bing": 133,
    "bi": 134,
    "hu": 135,
    "gai": 136,
    "cai": 137,
    "tai": 138,
    "che": 139,
    "ba": 140,
    "bian": 141,
    "wan": 142,
    "lu": 143,
    "tian": 144,
    "ling": 145,
    "nan": 146,
    "chi": 147,
    "gan": 148,
    "suo": 149,
    "zhen": 150,
    "cha": 151,
    "liu": 152,
    "ping": 153,
    "zui": 154,
    "zu": 155,
    "qiang": 156,
    "feng": 157,
    "ze": 158,
    "lv": 159,
    "lian": 160,
    "zhao": 161,
    "jue": 162,
    "gu": 163,
    "tu": 164,
    "nv": 165,
    "gui": 166,
    "lao": 167,
    "su": 168,
    "huan": 169,
    "hen": 170,
    "pin": 171,
    "ben": 172,
    "ran": 173,
    "kan": 174,
    "yue": 175,
    "ri": 176,
    "tou": 177,
    "shao": 178,
    "shui": 179,
    "chan": 180,
    "ma": 181,
    "wai": 182,
    "geng": 183,
    "qiu": 184,
    "que": 185,
    "zao": 186,
    "ting": 187,
    "zhuan": 188,
    "gou": 189,
    "shan": 190,
    "bai": 191,
    "zhou": 192,
    "jun": 193,
    "liao": 194,
    "pai": 195,
    "cong": 196,
    "ni": 197,
    "tiao": 198,
    "san": 199,
    "nei": 200,
    "duan": 201,
    "tui": 202,
    "yun": 203,
    "chuan": 204,
    "》": 205,
    "《": 206,
    "guang": 207,
    "？": 208,
    "cun": 209,
    "rang": 210,
    "luo": 211,
    "bo": 212,
    "zong": 213,
    "han": 214,
    "zhuang": 215,
    "me": 216,
    "na": 217,
    "xuan": 218,
    "ai": 219,
    "kong": 220,
    "diao": 221,
    "tan": 222,
    "mi": 223,
    "e": 224,
    "sui": 225,
    "ya": 226,
    "can": 227,
    "rong": 228,
    "chun": 229,
    "xun": 230,
    "lin": 231,
    "qin": 232,
    "mo": 233,
    "；": 234,
    "ce": 235,
    "chuang": 236,
    "nong": 237,
    "kao": 238,
    "qun": 239,
    "kou": 240,
    "te": 241,
    "mai": 242,
    "lei": 243,
    "（": 244,
    "）": 245,
    "chen": 246,
    "qie": 247,
    "kuai": 248,
    "pi": 249,
    "pian": 250,
    "chao": 251,
    "kuang": 252,
    "gen": 253,
    "pei": 254,
    "chong": 255,
    "hong": 256,
    "song": 257,
    "ceng": 258,
    "hang": 259,
    "gang": 260,
    "mou": 261,
    "lun": 262,
    "zou": 263,
    "piao": 264,
    "gei": 265,
    "tao": 266,
    "man": 267,
    "bie": 268,
    "hun": 269,
    "xiu": 270,
    "se": 271,
    "huang": 272,
    "zeng": 273,
    "pu": 274,
    "po": 275,
    "mao": 276,
    "ao": 277,
    "tang": 278,
    "zhun": 279,
    "tie": 280,
    "lie": 281,
    "re": 282,
    "a": 283,
    "cuo": 284,
    "kang": 285,
    "meng": 286,
    "pan": 287,
    "la": 288,
    "sha": 289,
    "bang": 290,
    "peng": 291,
    "ei": 292,
    "lan": 293,
    "long": 294,
    "tuo": 295,
    "tuan": 296,
    "suan": 297,
    "！": 298,
    "lou": 299,
    "ku": 300,
    "reng": 301,
    "qiao": 302,
    "kuan": 303,
    "cao": 304,
    "sun": 305,
    "fou": 306,
    "chou": 307,
    "huai": 308,
    "cu": 309,
    "shuang": 310,
    "…": 311,
    "kun": 312,
    "zha": 313,
    "kuo": 314,
    "zhua": 315,
    "xiong": 316,
    "pao": 317,
    "lang": 318,
    "zhuo": 319,
    "zhui": 320,
    "ka": 321,
    "zen": 322,
    "rou": 323,
    "ou": 324,
    "ning": 325,
    "hei": 326,
    "dun": 327,
    "pa": 328,
    "heng": 329,
    "cang": 330,
    "shun": 331,
    "niu": 332,
    "nu": 333,
    "bin": 334,
    "miao": 335,
    "zan": 336,
    "lve": 337,
    "nai": 338,
    "zhai": 339,
    "sai": 340,
    "ruo": 341,
    "shuai": 342,
    "zang": 343,
    "gua": 344,
    "za": 345,
    "luan": 346,
    "mang": 347,
    "nao": 348,
    "【": 349,
    "】": 350,
    "rao": 351,
    "chai": 352,
    "leng": 353,
    "ken": 354,
    "cui": 355,
    "pang": 356,
    "zun": 357,
    "sh": 358,
    "juan": 359,
    "wa": 360,
    "sang": 361,
    "ne": 362,
    "teng": 363,
    "nuan": 364,
    "ruan": 365,
    "niang": 366,
    "kui": 367,
    "die": 368,
    "kua": 369,
    "ang": 370,
    "guai": 371,
    "nuo": 372,
    "rui": 373,
    "run": 374,
    "nin": 375,
    "sa": 376,
    "niao": 377,
    "sou": 378,
    "sao": 379,
    "en": 380,
    "qia": 381,
    "chui": 382,
    "shua": 383,
    "ha": 384,
    "gun": 385,
    "tun": 386,
    "shai": 387,
    "sen": 388,
    "qiong": 389,
    "diu": 390,
    "lia": 391,
    "pen": 392,
    "beng": 393,
    "mie": 394,
    "ca": 395,
    "nen": 396,
    "weng": 397,
    "zuan": 398,
    "keng": 399,
    "jiong": 400,
    "shuan": 401,
    "fo": 402,
    "nang": 403,
    "o": 404,
    "nie": 405,
    "zei": 406,
    "ga": 407,
    "cou": 408,
    "cuan": 409,
    "pou": 410,
    "seng": 411,
    "chuai": 412,
    "chuo": 413,
    "zhuai": 414,
    "miu": 415,
    "c": 416,
    "d": 417,
    "pie": 418,
    "「": 419,
    "」": 420,
    "yo": 421,
    "yua": 422,
    "son": 423,
    "lue": 424,
    "zhon": 425,
    "dia": 426,
    "fe": 427,
    "xua": 428
  },
  "tgt_word2id": {
    "<pad>": 0,
    "<s>": 1,
    "</s>": 2,
    "<unk>": 3,
    "，": 4,
    "的": 5,
    "。": 6,
    "一": 7,
    "、": 8,
    "是": 9,
    "人": 10,
    "不": 11,
    "“": 12,
    "”": 13,
    "在": 14,
    "有": 15,
    "了": 16,
    "中": 17,
    "大": 18,
    "和": 19,
    "为": 20,
    "会": 21,
    "要": 22,
    "上": 23,
    "这": 24,
    "发": 25,
    "国": 26,
    "生": 27,
    "出": 28,
    "对": 29,
    "到": 30,
    "时": 31,
    "来": 32,
    "行": 33,
    "作": 34,
    "个": 35,
    "家": 36,
    "地": 37,
    "我": 38,
    "他": 39,
    "以": 40,
    "能": 41,
    "：": 42,
    "也": 43,
    "工": 44,
    "公": 45,
    "年": 46,
    "方": 47,
    "就": 48,
    "后": 49,
    "实": 50,
    "现": 51,
    "多": 52,
    "市": 53,
    "说": 54,
    "法": 55,
    "们": 56,
    "子": 57,
    "新": 58,
    "成": 59,
    "民": 60,
    "者": 61,
    "部": 62,
    "进": 63,
    "过": 64,
    "业": 65,
    "自": 66,
    "用": 67,
    "经": 68,
    "政": 69,
    "动": 70,
    "可": 71,
    "事": 72,
    "关": 73,
    "全": 74,
    "开": 75,
    "学": 76,
    "于": 77,
    "理": 78,
    "好": 79,
    "力": 80,
    "前": 81,
    "都": 82,
    "定": 83,
    "还": 84,
    "体": 85,
    "下": 86,
    "小": 87,
    "等": 88,
    "员": 89,
    "建": 90,
    "高": 91,
    "面": 92,
    "主": 93,
    "车": 94,
    "心": 95,
    "重": 96,
    "表": 97,
    "记": 98,
    "化": 99,
    "制": 100,
    "得": 101,
    "机": 102,
    "而": 103,
    "加": 104,
    "同": 105,
    "安": 106,
    "将": 107,
    "与": 108,
    "当": 109,
    "女": 110,
    "天": 111,
    "情": 112,
    "分": 113,
    "长": 114,
    "区": 115,
    "提": 116,
    "性": 117,
    "务": 118,
    "之": 119,
    "场": 120,
    "通": 121,
    "保": 122,
    "没": 123,
    "着": 124,
    "展": 125,
    "日": 126,
    "本": 127,
    "合": 128,
    "度": 129,
    "其": 130,
    "报": 131,
    "如": 132,
    "所": 133,
    "但": 134,
    "题": 135,
    "被": 136,
    "很": 137,
    "道": 138,
    "明": 139,
    "问": 140,
    "点": 141,
    "些": 142,
    "意": 143,
    "起": 144,
    "外": 145,
    "最": 146,
    "目": 147,
    "看": 148,
    "产": 149,
    "老": 150,
    "此": 151,
    "正": 152,
    "强": 153,
    "因": 154,
    "更": 155,
    "相": 156,
    "门": 157,
    "管": 158,
    "解": 159,
    "设": 160,
    "应": 161,
    "示": 162,
    "委": 163,
    "位": 164,
    "网": 165,
    "内": 166,
    "文": 167,
    "间": 168,
    "改": 169,
    "并": 170,
    "然": 171,
    "社": 172,
    "身": 173,
    "次": 174,
    "导": 175,
    "去": 176,
    "任": 177,
    "两": 178,
    "三": 179,
    "》": 180,
    "《": 181,
    "从": 182,
    "里": 183,
    "活": 184,
    "平": 185,
    "调": 186,
    "常": 187,
    "水": 188,
    "品": 189,
    "资": 190,
    "？": 191,
    "手": 192,
    "入": 193,
    "种": 194,
    "路": 195,
    "物": 196,
    "规": 197,
    "海": 198,
    "名": 199,
    "已": 200,
    "各": 201,
    "美": 202,
    "让": 203,
    "无": 204,
    "省": 205,
    "做": 206,
    "果": 207,
    "认": 208,
    "交": 209,
    "受": 210,
    "么": 211,
    "代": 212,
    "查": 213,
    "电": 214,
    "院": 215,
    "处": 216,
    "节": 217,
    "系": 218,
    "原": 219,
    "她": 220,
    "想": 221,
    "城": 222,
    "及": 223,
    "信": 224,
    "金": 225,
    "议": 226,
    "办": 227,
    "期": 228,
    "张": 229,
    "己": 230,
    "持": 231,
    "接": 232,
    "回": 233,
    "放": 234,
    "求": 235,
    "向": 236,
    "样": 237,
    "治": 238,
    "警": 239,
    "众": 240,
    "打": 241,
    "量": 242,
    "利": 243,
    "你": 244,
    "党": 245,
    "近": 246,
    "推": 247,
    "据": 248,
    "把": 249,
    "费": 250,
    "教": 251,
    "少": 252,
    "立": 253,
    "房": 254,
    "；": 255,
    "给": 256,
    "案": 257,
    "标": 258,
    "结": 259,
    "军": 260,
    "领": 261,
    "件": 262,
    "感": 263,
    "只": 264,
    "基": 265,
    "责": 266,
    "风": 267,
    "北": 268,
    "气": 269,
    "西": 270,
    "程": 271,
    "十": 272,
    "比": 273,
    "特": 274,
    "局": 275,
    "知": 276,
    "台": 277,
    "第": 278,
    "二": 279,
    "食": 280,
    "该": 281,
    "南": 282,
    "证": 283,
    "视": 284,
    "组": 285,
    "服": 286,
    "决": 287,
    "（": 288,
    "）": 289,
    "单": 290,
    "友": 291,
    "春": 292,
    "先": 293,
    "口": 294,
    "话": 295,
    "王": 296,
    "男": 297,
    "称": 298,
    "医": 299,
    "儿": 300,
    "式": 301,
    "确": 302,
    "头": 303,
    "司": 304,
    "农": 305,
    "价": 306,
    "干": 307,
    "商": 308,
    "府": 309,
    "由": 310,
    "收": 311,
    "告": 312,
    "群": 313,
    "或": 314,
    "使": 315,
    "难": 316,
    "今": 317,
    "指": 318,
    "反": 319,
    "传": 320,
    "严": 321,
    "真": 322,
    "科": 323,
    "监": 324,
    "那": 325,
    "京": 326,
    "项": 327,
    "消": 328,
    "取": 329,
    "客": 330,
    "变": 331,
    "权": 332,
    "质": 333,
    "带": 334,
    "育": 335,
    "总": 336,
    "步": 337,
    "深": 338,
    "村": 339,
    "统": 340,
    "直": 341,
    "运": 342,
    "影": 343,
    "李": 344,
    "战": 345,
    "格": 346,
    "别": 347,
    "东": 348,
    "需": 349,
    "书": 350,
    "清": 351,
    "专": 352,
    "流": 353,
    "考": 354,
    "见": 355,
    "快": 356,
    "造": 357,
    "何": 358,
    "神": 359,
    "照": 360,
    "完": 361,
    "级": 362,
    "整": 363,
    "环": 364,
    "施": 365,
    "效": 366,
    "数": 367,
    "孩": 368,
    "协": 369,
    "再": 370,
    "几": 371,
    "马": 372,
    "走": 373,
    "吃": 374,
    "住": 375,
    "革": 376,
    "养": 377,
    "企": 378,
    "条": 379,
    "票": 380,
    "联": 381,
    "防": 382,
    "非": 383,
    "况": 384,
    "共": 385,
    "色": 386,
    "爱": 387,
    "选": 388,
    "才": 389,
    "观": 390,
    "济": 391,
    "队": 392,
    "营": 393,
    "演": 394,
    "华": 395,
    "图": 396,
    "创": 397,
    "广": 398,
    "引": 399,
    "增": 400,
    "支": 401,
    "未": 402,
    "转": 403,
    "某": 404,
    "护": 405,
    "职": 406,
    "游": 407,
    "周": 408,
    "准": 409,
    "研": 410,
    "计": 411,
    "又": 412,
    "四": 413,
    "师": 414,
    "形": 415,
    "士": 416,
    "源": 417,
    "官": 418,
    "火": 419,
    "山": 420,
    "至": 421,
    "息": 422,
    "精": 423,
    "线": 424,
    "晚": 425,
    "注": 426,
    "习": 427,
    "参": 428,
    "则": 429,
    "集": 430,
    "越": 431,
    "太": 432,
    "钱": 433,
    "检": 434,
    "热": 435,
    "望": 436,
    "亲": 437,
    "态": 438,
    "除": 439,
    "律": 440,
    "具": 441,
    "光": 442,
    "包": 443,
    "校": 444,
    "容": 445,
    "刘": 446,
    "言": 447,
    "坚": 448,
    "病": 449,
    "空": 450,
    "落": 451,
    "站": 452,
    "论": 453,
    "每": 454,
    "究": 455,
    "型": 456,
    "排": 457,
    "健": 458,
    "策": 459,
    "首": 460,
    "极": 461,
    "往": 462,
    "备": 463,
    "纪": 464,
    "白": 465,
    "范": 466,
    "较": 467,
    "红": 468,
    "片": 469,
    "随": 470,
    "善": 471,
    "什": 472,
    "必": 473,
    "边": 474,
    "类": 475,
    "央": 476,
    "续": 477,
    "陈": 478,
    "义": 479,
    "旅": 480,
    "负": 481,
    "供": 482,
    "易": 483,
    "县": 484,
    "觉": 485,
    "象": 486,
    "审": 487,
    "境": 488,
    "便": 489,
    "婚": 490,
    "助": 491,
    "乐": 492,
    "林": 493,
    "布": 494,
    "构": 495,
    "志": 496,
    "际": 497,
    "思": 498,
    "术": 499,
    "州": 500,
    "致": 501,
    "执": 502,
    "存": 503,
    "居": 504,
    "采": 505,
    "试": 506,
    "团": 507,
    "户": 508,
    "装": 509,
    "根": 510,
    "花": 511,
    "诉": 512,
    "益": 513,
    "福": 514,
    "失": 515,
    "星": 516,
    "技": 517,
    "购": 518,
    "土": 519,
    "识": 520,
    "段": 521,
    "批": 522,
    "免": 523,
    "划": 524,
    "五": 525,
    "副": 526,
    "断": 527,
    "！": 528,
    "举": 529,
    "黄": 530,
    "历": 531,
    "响": 532,
    "依": 533,
    "江": 534,
    "复": 535,
    "离": 536,
    "料": 537,
    "送": 538,
    "却": 539,
    "投": 540,
    "博": 541,
    "闻": 542,
    "介": 543,
    "积": 544,
    "察": 545,
    "买": 546,
    "功": 547,
    "候": 548,
    "足": 549,
    "许": 550,
    "终": 551,
    "母": 552,
    "升": 553,
    "剧": 554,
    "显": 555,
    "势": 556,
    "险": 557,
    "昨": 558,
    "始": 559,
    "夫": 560,
    "即": 561,
    "访": 562,
    "速": 563,
    "微": 564,
    "争": 565,
    "优": 566,
    "界": 567,
    "曾": 568,
    "切": 569,
    "待": 570,
    "控": 571,
    "违": 572,
    "低": 573,
    "世": 574,
    "核": 575,
    "铁": 576,
    "声": 577,
    "评": 578,
    "配": 579,
    "满": 580,
    "围": 581,
    "验": 582,
    "害": 583,
    "眼": 584,
    "否": 585,
    "早": 586,
    "层": 587,
    "达": 588,
    "紧": 589,
    "织": 590,
    "仅": 591,
    "像": 592,
    "找": 593,
    "父": 594,
    "承": 595,
    "份": 596,
    "媒": 597,
    "担": 598,
    "八": 599,
    "突": 600,
    "店": 601,
    "伤": 602,
    "龙": 603,
    "百": 604,
    "且": 605,
    "按": 606,
    "属": 607,
    "德": 608,
    "故": 609,
    "希": 610,
    "听": 611,
    "月": 612,
    "康": 613,
    "预": 614,
    "青": 615,
    "卫": 616,
    "刚": 617,
    "…": 618,
    "素": 619,
    "尽": 620,
    "死": 621,
    "维": 622,
    "留": 623,
    "补": 624,
    "超": 625,
    "假": 626,
    "请": 627,
    "万": 628,
    "置": 629,
    "财": 630,
    "园": 631,
    "史": 632,
    "连": 633,
    "酒": 634,
    "它": 635,
    "充": 636,
    "底": 637,
    "限": 638,
    "约": 639,
    "球": 640,
    "血": 641,
    "疑": 642,
    "款": 643,
    "号": 644,
    "域": 645,
    "亚": 646,
    "细": 647,
    "销": 648,
    "抓": 649,
    "障": 650,
    "古": 651,
    "药": 652,
    "远": 653,
    "乡": 654,
    "席": 655,
    "值": 656,
    "绍": 657,
    "杨": 658,
    "算": 659,
    "喜": 660,
    "讲": 661,
    "减": 662,
    "镇": 663,
    "富": 664,
    "双": 665,
    "另": 666,
    "获": 667,
    "武": 668,
    "室": 669,
    "露": 670,
    "石": 671,
    "止": 672,
    "礼": 673,
    "河": 674,
    "停": 675,
    "救": 676,
    "阳": 677,
    "督": 678,
    "宝": 679,
    "罪": 680,
    "命": 681,
    "虽": 682,
    "班": 683,
    "状": 684,
    "餐": 685,
    "元": 686,
    "破": 687,
    "够": 688,
    "景": 689,
    "例": 690,
    "遇": 691,
    "庭": 692,
    "帮": 693,
    "列": 694,
    "跟": 695,
    "良": 696,
    "轻": 697,
    "适": 698,
    "模": 699,
    "愿": 700,
    "斯": 701,
    "拍": 702,
    "令": 703,
    "楼": 704,
    "宣": 705,
    "腐": 706,
    "怎": 707,
    "压": 708,
    "普": 709,
    "欢": 710,
    "银": 711,
    "歌": 712,
    "英": 713,
    "修": 714,
    "温": 715,
    "谈": 716,
    "密": 717,
    "击": 718,
    "促": 719,
    "烟": 720,
    "妈": 721,
    "语": 722,
    "拉": 723,
    "亮": 724,
    "湖": 725,
    "继": 726,
    "克": 727,
    "措": 728,
    "器": 729,
    "菜": 730,
    "售": 731,
    "届": 732,
    "犯": 733,
    "污": 734,
    "须": 735,
    "字": 736,
    "禁": 737,
    "疗": 738,
    "甚": 739,
    "味": 740,
    "涉": 741,
    "吸": 742,
    "摄": 743,
    "融": 744,
    "登": 745,
    "追": 746,
    "哪": 747,
    "毒": 748,
    "差": 749,
    "仍": 750,
    "牌": 751,
    "拿": 752,
    "卡": 753,
    "绝": 754,
    "汉": 755,
    "困": 756,
    "稳": 757,
    "黑": 758,
    "择": 759,
    "艺": 760,
    "独": 761,
    "爸": 762,
    "染": 763,
    "急": 764,
    "兴": 765,
    "临": 766,
    "念": 767,
    "角": 768,
    "丽": 769,
    "半": 770,
    "妻": 771,
    "香": 772,
    "油": 773,
    "简": 774,
    "派": 775,
    "朝": 776,
    "尔": 777,
    "挥": 778,
    "率": 779,
    "透": 780,
    "似": 781,
    "初": 782,
    "航": 783,
    "肉": 784,
    "馆": 785,
    "韩": 786,
    "飞": 787,
    "激": 788,
    "互": 789,
    "络": 790,
    "错": 791,
    "患": 792,
    "秘": 793,
    "爆": 794,
    "读": 795,
    "音": 796,
    "写": 797,
    "饭": 798,
    "饮": 799,
    "招": 800,
    "谢": 801,
    "私": 802,
    "租": 803,
    "卖": 804,
    "赵": 805,
    "笑": 806,
    "败": 807,
    "吴": 808,
    "醒": 809,
    "略": 810,
    "降": 811,
    "奇": 812,
    "乘": 813,
    "测": 814,
    "曝": 815,
    "础": 816,
    "鲜": 817,
    "朋": 818,
    "奖": 819,
    "播": 820,
    "族": 821,
    "退": 822,
    "针": 823,
    "顾": 824,
    "判": 825,
    "阿": 826,
    "背": 827,
    "含": 828,
    "付": 829,
    "千": 830,
    "厅": 831,
    "录": 832,
    "遭": 833,
    "戏": 834,
    "威": 835,
    "板": 836,
    "频": 837,
    "六": 838,
    "辆": 839,
    "午": 840,
    "姓": 841,
    "索": 842,
    "穿": 843,
    "货": 844,
    "云": 845,
    "倒": 846,
    "予": 847,
    "刻": 848,
    "坐": 849,
    "材": 850,
    "训": 851,
    "喝": 852,
    "序": 853,
    "冬": 854,
    "缺": 855,
    "港": 856,
    "雪": 857,
    "兵": 858,
    "峰": 859,
    "纷": 860,
    "座": 861,
    "丰": 862,
    "嫌": 863,
    "培": 864,
    "短": 865,
    "冰": 866,
    "顺": 867,
    "吗": 868,
    "呢": 869,
    "玉": 870,
    "衣": 871,
    "毛": 872,
    "守": 873,
    "画": 874,
    "乎": 875,
    "赶": 876,
    "章": 877,
    "罗": 878,
    "夜": 879,
    "均": 880,
    "庆": 881,
    "怀": 882,
    "街": 883,
    "危": 884,
    "季": 885,
    "征": 886,
    "践": 887,
    "久": 888,
    "抢": 889,
    "梦": 890,
    "括": 891,
    "印": 892,
    "脑": 893,
    "藏": 894,
    "玩": 895,
    "皮": 896,
    "【": 897,
    "】": 898,
    "探": 899,
    "聚": 900,
    "套": 901,
    "异": 902,
    "孙": 903,
    "述": 904,
    "损": 905,
    "劳": 906,
    "误": 907,
    "编": 908,
    "换": 909,
    "舞": 910,
    "智": 911,
    "避": 912,
    "虑": 913,
    "巴": 914,
    "杀": 915,
    "苦": 916,
    "晓": 917,
    "赛": 918,
    "既": 919,
    "幸": 920,
    "宁": 921,
    "逐": 922,
    "移": 923,
    "呼": 924,
    "靠": 925,
    "陆": 926,
    "松": 927,
    "休": 928,
    "努": 929,
    "般": 930,
    "端": 931,
    "刑": 932,
    "竟": 933,
    "肥": 934,
    "秀": 935,
    "谁": 936,
    "隐": 937,
    "输": 938,
    "彻": 939,
    "倍": 940,
    "斗": 941,
    "综": 942,
    "答": 943,
    "冷": 944,
    "讨": 945,
    "享": 946,
    "怕": 947,
    "鱼": 948,
    "姐": 949,
    "郭": 950,
    "唱": 951,
    "附": 952,
    "惊": 953,
    "吧": 954,
    "贴": 955,
    "借": 956,
    "伟": 957,
    "堂": 958,
    "悉": 959,
    "析": 960,
    "童": 961,
    "贯": 962,
    "苏": 963,
    "岛": 964,
    "驻": 965,
    "询": 966,
    "妇": 967,
    "木": 968,
    "叫": 969,
    "鼓": 970,
    "痛": 971,
    "献": 972,
    "廉": 973,
    "纳": 974,
    "弹": 975,
    "额": 976,
    "蛋": 977,
    "荐": 978,
    "冲": 979,
    "米": 980,
    "洲": 981,
    "词": 982,
    "励": 983,
    "跑": 984,
    "贵": 985,
    "永": 986,
    "税": 987,
    "敢": 988,
    "订": 989,
    "练": 990,
    "豪": 991,
    "草": 992,
    "版": 993,
    "乱": 994,
    "骗": 995,
    "股": 996,
    "尚": 997,
    "七": 998,
    "释": 999,
    "绿": 1000,
    "拥": 1001,
    "罚": 1002,
    "抗": 1003,
    "余": 1004,
    "湾": 1005,
    "迎": 1006,
    "牛": 1007,
    "延": 1008,
    "厦": 1009,
    "脚": 1010,
    "屋": 1011,
    "曲": 1012,
    "丝": 1013,
    "键": 1014,
    "映": 1015,
    "洋": 1016,
    "敏": 1017,
    "托": 1018,
    "睡": 1019,
    "胡": 1020,
    "归": 1021,
    "寒": 1022,
    "沙": 1023,
    "钟": 1024,
    "旧": 1025,
    "杂": 1026,
    "申": 1027,
    "慢": 1028,
    "驾": 1029,
    "旦": 1030,
    "烧": 1031,
    "签": 1032,
    "巨": 1033,
    "烈": 1034,
    "讯": 1035,
    "脸": 1036,
    "盘": 1037,
    "启": 1038,
    "阶": 1039,
    "唐": 1040,
    "婆": 1041,
    "圈": 1042,
    "肯": 1043,
    "途": 1044,
    "树": 1045,
    "症": 1046,
    "波": 1047,
    "暖": 1048,
    "宫": 1049,
    "坏": 1050,
    "骨": 1051,
    "郑": 1052,
    "脱": 1053,
    "宜": 1054,
    "川": 1055,
    "尤": 1056,
    "忙": 1057,
    "洗": 1058,
    "署": 1059,
    "桥": 1060,
    "授": 1061,
    "浪": 1062,
    "遗": 1063,
    "绩": 1064,
    "洁": 1065,
    "掉": 1066,
    "熟": 1067,
    "鸡": 1068,
    "诚": 1069,
    "码": 1070,
    "笔": 1071,
    "弟": 1072,
    "奥": 1073,
    "恋": 1074,
    "哥": 1075,
    "档": 1076,
    "奶": 1077,
    "彩": 1078,
    "盖": 1079,
    "载": 1080,
    "佳": 1081,
    "唯": 1082,
    "宋": 1083,
    "诗": 1084,
    "束": 1085,
    "徐": 1086,
    "疾": 1087,
    "句": 1088,
    "朱": 1089,
    "田": 1090,
    "固": 1091,
    "齐": 1092,
    "谋": 1093,
    "荣": 1094,
    "胜": 1095,
    "野": 1096,
    "符": 1097,
    "射": 1098,
    "块": 1099,
    "驶": 1100,
    "豆": 1101,
    "陕": 1102,
    "渐": 1103,
    "占": 1104,
    "若": 1105,
    "软": 1106,
    "扬": 1107,
    "龄": 1108,
    "灾": 1109,
    "床": 1110,
    "伴": 1111,
    "亡": 1112,
    "静": 1113,
    "课": 1114,
    "粉": 1115,
    "兰": 1116,
    "竞": 1117,
    "九": 1118,
    "典": 1119,
    "硬": 1120,
    "轮": 1121,
    "惯": 1122,
    "勇": 1123,
    "操": 1124,
    "搞": 1125,
    "虚": 1126,
    "扩": 1127,
    "恶": 1128,
    "惠": 1129,
    "潜": 1130,
    "散": 1131,
    "窗": 1132,
    "船": 1133,
    "挑": 1134,
    "寻": 1135,
    "茶": 1136,
    "拜": 1137,
    "贸": 1138,
    "幕": 1139,
    "侵": 1140,
    "毕": 1141,
    "酸": 1142,
    "扶": 1143,
    "召": 1144,
    "拒": 1145,
    "宗": 1146,
    "握": 1147,
    "纸": 1148,
    "叶": 1149,
    "封": 1150,
    "摆": 1151,
    "厂": 1152,
    "恩": 1153,
    "汽": 1154,
    "欲": 1155,
    "泽": 1156,
    "雷": 1157,
    "筑": 1158,
    "娱": 1159,
    "伙": 1160,
    "抱": 1161,
    "牙": 1162,
    "谓": 1163,
    "冯": 1164,
    "疆": 1165,
    "赞": 1166,
    "偿": 1167,
    "揭": 1168,
    "孕": 1169,
    "液": 1170,
    "粮": 1171,
    "虎": 1172,
    "翻": 1173,
    "迷": 1174,
    "架": 1175,
    "汇": 1176,
    "缓": 1177,
    "炸": 1178,
    "癌": 1179,
    "账": 1180,
    "攻": 1181,
    "汤": 1182,
    "撞": 1183,
    "挂": 1184,
    "奋": 1185,
    "爷": 1186,
    "雨": 1187,
    "偷": 1188,
    "绕": 1189,
    "坦": 1190,
    "胃": 1191,
    "暴": 1192,
    "顶": 1193,
    "巡": 1194,
    "楚": 1195,
    "搭": 1196,
    "扎": 1197,
    "董": 1198,
    "圆": 1199,
    "梁": 1200,
    "折": 1201,
    "零": 1202,
    "幂": 1203,
    "杰": 1204,
    "燃": 1205,
    "伍": 1206,
    "遍": 1207,
    "邵": 1208,
    "逃": 1209,
    "徽": 1210,
    "仪": 1211,
    "恐": 1212,
    "跳": 1213,
    "饰": 1214,
    "盛": 1215,
    "筹": 1216,
    "弃": 1217,
    "刀": 1218,
    "庄": 1219,
    "逸": 1220,
    "舰": 1221,
    "麻": 1222,
    "尊": 1223,
    "灵": 1224,
    "雅": 1225,
    "啊": 1226,
    "吉": 1227,
    "刺": 1228,
    "俗": 1229,
    "沟": 1230,
    "籍": 1231,
    "夕": 1232,
    "糖": 1233,
    "舒": 1234,
    "岸": 1235,
    "弱": 1236,
    "掌": 1237,
    "宇": 1238,
    "墙": 1239,
    "岁": 1240,
    "涨": 1241,
    "触": 1242,
    "肤": 1243,
    "潮": 1244,
    "纠": 1245,
    "厚": 1246,
    "您": 1247,
    "润": 1248,
    "戴": 1249,
    "递": 1250,
    "援": 1251,
    "迅": 1252,
    "迁": 1253,
    "暂": 1254,
    "丹": 1255,
    "俄": 1256,
    "忠": 1257,
    "娘": 1258,
    "拆": 1259,
    "暗": 1260,
    "雄": 1261,
    "鉴": 1262,
    "肃": 1263,
    "履": 1264,
    "岗": 1265,
    "繁": 1266,
    "敬": 1267,
    "冒": 1268,
    "雾": 1269,
    "截": 1270,
    "币": 1271,
    "贤": 1272,
    "残": 1273,
    "镜": 1274,
    "衡": 1275,
    "晨": 1276,
    "赔": 1277,
    "尼": 1278,
    "末": 1279,
    "著": 1280,
    "右": 1281,
    "库": 1282,
    "殊": 1283,
    "旁": 1284,
    "墓": 1285,
    "抽": 1286,
    "贫": 1287,
    "诺": 1288,
    "昌": 1289,
    "跨": 1290,
    "拔": 1291,
    "盾": 1292,
    "拼": 1293,
    "勤": 1294,
    "忆": 1295,
    "幅": 1296,
    "震": 1297,
    "邀": 1298,
    "梅": 1299,
    "闭": 1300,
    "阵": 1301,
    "左": 1302,
    "诊": 1303,
    "蓝": 1304,
    "蔡": 1305,
    "迹": 1306,
    "宾": 1307,
    "妹": 1308,
    "默": 1309,
    "滑": 1310,
    "焦": 1311,
    "邓": 1312,
    "贪": 1313,
    "皇": 1314,
    "脏": 1315,
    "怪": 1316,
    "菲": 1317,
    "距": 1318,
    "陪": 1319,
    "宿": 1320,
    "脂": 1321,
    "乏": 1322,
    "趣": 1323,
    "腿": 1324,
    "嘉": 1325,
    "肠": 1326,
    "耳": 1327,
    "沈": 1328,
    "惩": 1329,
    "铺": 1330,
    "丈": 1331,
    "泛": 1332,
    "阻": 1333,
    "幼": 1334,
    "贷": 1335,
    "缩": 1336,
    "涛": 1337,
    "返": 1338,
    "狗": 1339,
    "艳": 1340,
    "宅": 1341,
    "祖": 1342,
    "汪": 1343,
    "贡": 1344,
    "珍": 1345,
    "纯": 1346,
    "帝": 1347,
    "沉": 1348,
    "忘": 1349,
    "洪": 1350,
    "厉": 1351,
    "摩": 1352,
    "偏": 1353,
    "慰": 1354,
    "杜": 1355,
    "畅": 1356,
    "丁": 1357,
    "胸": 1358,
    "蒋": 1359,
    "劝": 1360,
    "慧": 1361,
    "宏": 1362,
    "牢": 1363,
    "夏": 1364,
    "顿": 1365,
    "陷": 1366,
    "邻": 1367,
    "植": 1368,
    "灯": 1369,
    "秦": 1370,
    "渠": 1371,
    "堵": 1372,
    "祝": 1373,
    "澳": 1374,
    "详": 1375,
    "胆": 1376,
    "颜": 1377,
    "吐": 1378,
    "沿": 1379,
    "隔": 1380,
    "阴": 1381,
    "伊": 1382,
    "俊": 1383,
    "傅": 1384,
    "捕": 1385,
    "尾": 1386,
    "矛": 1387,
    "轨": 1388,
    "颖": 1389,
    "枪": 1390,
    "淡": 1391,
    "阅": 1392,
    "偶": 1393,
    "概": 1394,
    "辉": 1395,
    "宽": 1396,
    "甲": 1397,
    "辅": 1398,
    "津": 1399,
    "垃": 1400,
    "圾": 1401,
    "旗": 1402,
    "梯": 1403,
    "夺": 1404,
    "竹": 1405,
    "腾": 1406,
    "肾": 1407,
    "忍": 1408,
    "秋": 1409,
    "霾": 1410,
    "狂": 1411,
    "泉": 1412,
    "谷": 1413,
    "袋": 1414,
    "振": 1415,
    "估": 1416,
    "累": 1417,
    "乳": 1418,
    "泰": 1419,
    "盗": 1420,
    "浓": 1421,
    "哈": 1422,
    "锁": 1423,
    "辛": 1424,
    "债": 1425,
    "疫": 1426,
    "绪": 1427,
    "链": 1428,
    "迫": 1429,
    "闹": 1430,
    "煤": 1431,
    "誉": 1432,
    "抵": 1433,
    "混": 1434,
    "挺": 1435,
    "烦": 1436,
    "侧": 1437,
    "册": 1438,
    "壮": 1439,
    "堆": 1440,
    "祥": 1441,
    "净": 1442,
    "池": 1443,
    "允": 1444,
    "岩": 1445,
    "聊": 1446,
    "袭": 1447,
    "哭": 1448,
    "箱": 1449,
    "瑞": 1450,
    "诈": 1451,
    "莫": 1452,
    "劲": 1453,
    "盟": 1454,
    "甘": 1455,
    "欠": 1456,
    "娜": 1457,
    "添": 1458,
    "径": 1459,
    "契": 1460,
    "邮": 1461,
    "炮": 1462,
    "尝": 1463,
    "辞": 1464,
    "凭": 1465,
    "钢": 1466,
    "魏": 1467,
    "乌": 1468,
    "蒙": 1469,
    "腹": 1470,
    "赌": 1471,
    "嘴": 1472,
    "碰": 1473,
    "潘": 1474,
    "呈": 1475,
    "甜": 1476,
    "蜜": 1477,
    "矿": 1478,
    "鲁": 1479,
    "蔬": 1480,
    "骑": 1481,
    "鹏": 1482,
    "倾": 1483,
    "恺": 1484,
    "燕": 1485,
    "欧": 1486,
    "熊": 1487,
    "贺": 1488,
    "搬": 1489,
    "浙": 1490,
    "替": 1491,
    "猪": 1492,
    "扫": 1493,
    "肌": 1494,
    "锅": 1495,
    "扮": 1496,
    "忽": 1497,
    "羊": 1498,
    "玲": 1499,
    "萌": 1500,
    "伸": 1501,
    "漏": 1502,
    "炒": 1503,
    "捐": 1504,
    "扰": 1505,
    "毫": 1506,
    "漫": 1507,
    "恢": 1508,
    "废": 1509,
    "森": 1510,
    "循": 1511,
    "碍": 1512,
    "瓶": 1513,
    "摇": 1514,
    "遵": 1515,
    "滋": 1516,
    "芳": 1517,
    "崔": 1518,
    "舆": 1519,
    "婴": 1520,
    "曹": 1521,
    "忧": 1522,
    "灰": 1523,
    "骂": 1524,
    "拖": 1525,
    "桌": 1526,
    "欣": 1527,
    "貌": 1528,
    "靖": 1529,
    "戒": 1530,
    "闲": 1531,
    "晒": 1532,
    "泪": 1533,
    "伦": 1534,
    "覆": 1535,
    "苗": 1536,
    "剂": 1537,
    "贿": 1538,
    "懂": 1539,
    "塑": 1540,
    "摸": 1541,
    "塔": 1542,
    "扣": 1543,
    "眠": 1544,
    "挤": 1545,
    "辽": 1546,
    "朗": 1547,
    "缘": 1548,
    "舍": 1549,
    "赢": 1550,
    "坛": 1551,
    "洞": 1552,
    "逼": 1553,
    "拓": 1554,
    "巧": 1555,
    "恒": 1556,
    "谐": 1557,
    "姜": 1558,
    "剩": 1559,
    "裸": 1560,
    "卷": 1561,
    "诸": 1562,
    "氛": 1563,
    "牵": 1564,
    "薪": 1565,
    "篇": 1566,
    "帅": 1567,
    "凝": 1568,
    "泡": 1569,
    "踪": 1570,
    "丢": 1571,
    "佛": 1572,
    "伯": 1573,
    "辩": 1574,
    "挖": 1575,
    "迪": 1576,
    "隆": 1577,
    "敌": 1578,
    "裁": 1579,
    "拟": 1580,
    "胎": 1581,
    "趋": 1582,
    "撑": 1583,
    "吓": 1584,
    "辈": 1585,
    "慈": 1586,
    "湿": 1587,
    "仁": 1588,
    "毁": 1589,
    "兼": 1590,
    "凡": 1591,
    "喊": 1592,
    "浮": 1593,
    "睛": 1594,
    "奔": 1595,
    "倡": 1596,
    "塞": 1597,
    "衰": 1598,
    "兄": 1599,
    "纵": 1600,
    "址": 1601,
    "君": 1602,
    "疼": 1603,
    "殖": 1604,
    "淘": 1605,
    "亦": 1606,
    "薄": 1607,
    "摊": 1608,
    "刷": 1609,
    "娃": 1610,
    "胁": 1611,
    "疏": 1612,
    "番": 1613,
    "纲": 1614,
    "桃": 1615,
    "紫": 1616,
    "携": 1617,
    "朴": 1618,
    "叹": 1619,
    "储": 1620,
    "慎": 1621,
    "曼": 1622,
    "横": 1623,
    "疯": 1624,
    "泥": 1625,
    "赏": 1626,
    "宪": 1627,
    "贝": 1628,
    "艰": 1629,
    "杯": 1630,
    "啥": 1631,
    "恰": 1632,
    "袁": 1633,
    "冻": 1634,
    "跃": 1635,
    "捷": 1636,
    "尘": 1637,
    "腊": 1638,
    "寿": 1639,
    "泄": 1640,
    "徒": 1641,
    "宴": 1642,
    "侦": 1643,
    "鼻": 1644,
    "辣": 1645,
    "勒": 1646,
    "咨": 1647,
    "妙": 1648,
    "凯": 1649,
    "尿": 1650,
    "冠": 1651,
    "尸": 1652,
    "圳": 1653,
    "仔": 1654,
    "吁": 1655,
    "毅": 1656,
    "嫁": 1657,
    "歉": 1658,
    "氏": 1659,
    "霸": 1660,
    "驱": 1661,
    "裂": 1662,
    "姻": 1663,
    "腰": 1664,
    "葬": 1665,
    "劫": 1666,
    "搜": 1667,
    "井": 1668,
    "秩": 1669,
    "胞": 1670,
    "鞋": 1671,
    "妥": 1672,
    "俩": 1673,
    "颇": 1674,
    "瓜": 1675,
    "锋": 1676,
    "赖": 1677,
    "赚": 1678,
    "奈": 1679,
    "撤": 1680,
    "孔": 1681,
    "迟": 1682,
    "炼": 1683,
    "贩": 1684,
    "碎": 1685,
    "麦": 1686,
    "姑": 1687,
    "刊": 1688,
    "伪": 1689,
    "郎": 1690,
    "屡": 1691,
    "寄": 1692,
    "彭": 1693,
    "艇": 1694,
    "浩": 1695,
    "怒": 1696,
    "拘": 1697,
    "赴": 1698,
    "劣": 1699,
    "纽": 1700,
    "奏": 1701,
    "魔": 1702,
    "诱": 1703,
    "氧": 1704,
    "聘": 1705,
    "赠": 1706,
    "盐": 1707,
    "漂": 1708,
    "尖": 1709,
    "凌": 1710,
    "缴": 1711,
    "饱": 1712,
    "滚": 1713,
    "洛": 1714,
    "汗": 1715,
    "裤": 1716,
    "凉": 1717,
    "韦": 1718,
    "稿": 1719,
    "肝": 1720,
    "乔": 1721,
    "屏": 1722,
    "岳": 1723,
    "漳": 1724,
    "肖": 1725,
    "纹": 1726,
    "坡": 1727,
    "奢": 1728,
    "粗": 1729,
    "猫": 1730,
    "窃": 1731,
    "抚": 1732,
    "惜": 1733,
    "炎": 1734,
    "萝": 1735,
    "萨": 1736,
    "珠": 1737,
    "肪": 1738,
    "拨": 1739,
    "奸": 1740,
    "仿": 1741,
    "怨": 1742,
    "磨": 1743,
    "桂": 1744,
    "叔": 1745,
    "斌": 1746,
    "帖": 1747,
    "榜": 1748,
    "弄": 1749,
    "掘": 1750,
    "览": 1751,
    "耗": 1752,
    "锦": 1753,
    "踏": 1754,
    "悲": 1755,
    "钓": 1756,
    "奉": 1757,
    "杭": 1758,
    "涵": 1759,
    "悔": 1760,
    "滨": 1761,
    "庙": 1762,
    "惑": 1763,
    "灭": 1764,
    "摔": 1765,
    "晋": 1766,
    "耕": 1767,
    "吕": 1768,
    "擦": 1769,
    "乃": 1770,
    "挡": 1771,
    "粥": 1772,
    "迈": 1773,
    "菌": 1774,
    "厕": 1775,
    "俭": 1776,
    "姿": 1777,
    "描": 1778,
    "惨": 1779,
    "贾": 1780,
    "圣": 1781,
    "牧": 1782,
    "苹": 1783,
    "堪": 1784,
    "俱": 1785,
    "壁": 1786,
    "姚": 1787,
    "倪": 1788,
    "辑": 1789,
    "吻": 1790,
    "吵": 1791,
    "栏": 1792,
    "卜": 1793,
    "赫": 1794,
    "婉": 1795,
    "肺": 1796,
    "槽": 1797,
    "肿": 1798,
    "悠": 1799,
    "剑": 1800,
    "孤": 1801,
    "谱": 1802,
    "浴": 1803,
    "妆": 1804,
    "侠": 1805,
    "陵": 1806,
    "柔": 1807,
    "逆": 1808,
    "鬼": 1809,
    "咸": 1810,
    "披": 1811,
    "凤": 1812,
    "孝": 1813,
    "腔": 1814,
    "猛": 1815,
    "雕": 1816,
    "旺": 1817,
    "脉": 1818,
    "厨": 1819,
    "丑": 1820,
    "舌": 1821,
    "寺": 1822,
    "崇": 1823,
    "催": 1824,
    "赋": 1825,
    "鸣": 1826,
    "磊": 1827,
    "狠": 1828,
    "岭": 1829,
    "捡": 1830,
    "芝": 1831,
    "填": 1832,
    "砸": 1833,
    "玛": 1834,
    "肩": 1835,
    "谨": 1836,
    "璃": 1837,
    "悄": 1838,
    "抑": 1839,
    "馨": 1840,
    "伏": 1841,
    "跌": 1842,
    "辖": 1843,
    "嫣": 1844,
    "杆": 1845,
    "钙": 1846,
    "遥": 1847,
    "押": 1848,
    "玻": 1849,
    "亿": 1850,
    "瘦": 1851,
    "弊": 1852,
    "券": 1853,
    "讼": 1854,
    "衷": 1855,
    "陶": 1856,
    "穷": 1857,
    "妃": 1858,
    "插": 1859,
    "醉": 1860,
    "咖": 1861,
    "猜": 1862,
    "墨": 1863,
    "盼": 1864,
    "耐": 1865,
    "邹": 1866,
    "愈": 1867,
    "燥": 1868,
    "溪": 1869,
    "澄": 1870,
    "脾": 1871,
    "埋": 1872,
    "稀": 1873,
    "卧": 1874,
    "莱": 1875,
    "稍": 1876,
    "薇": 1877,
    "肇": 1878,
    "戚": 1879,
    "祸": 1880,
    "悬": 1881,
    "衔": 1882,
    "挣": 1883,
    "痕": 1884,
    "侃": 1885,
    "仙": 1886,
    "镐": 1887,
    "哲": 1888,
    "邦": 1889,
    "狱": 1890,
    "闽": 1891,
    "宠": 1892,
    "胶": 1893,
    "晶": 1894,
    "疲": 1895,
    "糊": 1896,
    "译": 1897,
    "颗": 1898,
    "旨": 1899,
    "匪": 1900,
    "叙": 1901,
    "爬": 1902,
    "肚": 1903,
    "犹": 1904,
    "莲": 1905,
    "纤": 1906,
    "撒": 1907,
    "侣": 1908,
    "柏": 1909,
    "魅": 1910,
    "琴": 1911,
    "仗": 1912,
    "胖": 1913,
    "闯": 1914,
    "吹": 1915,
    "呆": 1916,
    "敲": 1917,
    "怡": 1918,
    "锻": 1919,
    "悦": 1920,
    "拦": 1921,
    "蜂": 1922,
    "霞": 1923,
    "柳": 1924,
    "凶": 1925,
    "摘": 1926,
    "酬": 1927,
    "酷": 1928,
    "棋": 1929,
    "愤": 1930,
    "吊": 1931,
    "琳": 1932,
    "膜": 1933,
    "趁": 1934,
    "郁": 1935,
    "沃": 1936,
    "淮": 1937,
    "硕": 1938,
    "峡": 1939,
    "丧": 1940,
    "锡": 1941,
    "姨": 1942,
    "廖": 1943,
    "烂": 1944,
    "恨": 1945,
    "昏": 1946,
    "晰": 1947,
    "唤": 1948,
    "碗": 1949,
    "沧": 1950,
    "妨": 1951,
    "躲": 1952,
    "椅": 1953,
    "荷": 1954,
    "仓": 1955,
    "泌": 1956,
    "廷": 1957,
    "瞬": 1958,
    "啡": 1959,
    "汁": 1960,
    "忌": 1961,
    "爽": 1962,
    "鸟": 1963,
    "惕": 1964,
    "艾": 1965,
    "拳": 1966,
    "喷": 1967,
    "幽": 1968,
    "尺": 1969,
    "禽": 1970,
    "玮": 1971,
    "捧": 1972,
    "孟": 1973,
    "棉": 1974,
    "逻": 1975,
    "瓦": 1976,
    "串": 1977,
    "御": 1978,
    "浦": 1979,
    "抬": 1980,
    "柜": 1981,
    "娅": 1982,
    "咬": 1983,
    "盈": 1984,
    "黎": 1985,
    "逢": 1986,
    "呵": 1987,
    "耀": 1988,
    "闪": 1989,
    "腺": 1990,
    "铜": 1991,
    "绑": 1992,
    "魂": 1993,
    "弘": 1994,
    "锐": 1995,
    "掀": 1996,
    "旋": 1997,
    "役": 1998,
    "翼": 1999,
    "煮": 2000,
    "柿": 2001,
    "铭": 2002,
    "莉": 2003,
    "扑": 2004,
    "躺": 2005,
    "媳": 2006,
    "臣": 2007,
    "渡": 2008,
    "佩": 2009,
    "柱": 2010,
    "翔": 2011,
    "卢": 2012,
    "滩": 2013,
    "饼": 2014,
    "颈": 2015,
    "歧": 2016,
    "涂": 2017,
    "抛": 2018,
    "郊": 2019,
    "荒": 2020,
    "姆": 2021,
    "巩": 2022,
    "寓": 2023,
    "绘": 2024,
    "淫": 2025,
    "皆": 2026,
    "蒸": 2027,
    "烤": 2028,
    "笼": 2029,
    "鸿": 2030,
    "坤": 2031,
    "滥": 2032,
    "彬": 2033,
    "篮": 2034,
    "屈": 2035,
    "赤": 2036,
    "怖": 2037,
    "窝": 2038,
    "荡": 2039,
    "盲": 2040,
    "斑": 2041,
    "掩": 2042,
    "侨": 2043,
    "辐": 2044,
    "脆": 2045,
    "汰": 2046,
    "亏": 2047,
    "裕": 2048,
    "伐": 2049,
    "啦": 2050,
    "莹": 2051,
    "炭": 2052,
    "碳": 2053,
    "柯": 2054,
    "匹": 2055,
    "扔": 2056,
    "碑": 2057,
    "彰": 2058,
    "臭": 2059,
    "械": 2060,
    "萍": 2061,
    "聪": 2062,
    "琦": 2063,
    "扭": 2064,
    "昆": 2065,
    "绸": 2066,
    "陌": 2067,
    "猎": 2068,
    "轿": 2069,
    "巷": 2070,
    "阔": 2071,
    "卓": 2072,
    "渴": 2073,
    "厢": 2074,
    "狼": 2075,
    "渔": 2076,
    "钻": 2077,
    "蕾": 2078,
    "轰": 2079,
    "盒": 2080,
    "遏": 2081,
    "骏": 2082,
    "夹": 2083,
    "叠": 2084,
    "尴": 2085,
    "尬": 2086,
    "弥": 2087,
    "坑": 2088,
    "坊": 2089,
    "琼": 2090,
    "辱": 2091,
    "埃": 2092,
    "缝": 2093,
    "谦": 2094,
    "憾": 2095,
    "颁": 2096,
    "苍": 2097,
    "瓷": 2098,
    "裙": 2099,
    "齿": 2100,
    "哄": 2101,
    "帽": 2102,
    "辨": 2103,
    "绳": 2104,
    "祭": 2105,
    "纱": 2106,
    "砖": 2107,
    "滴": 2108,
    "枣": 2109,
    "娇": 2110,
    "屿": 2111,
    "寨": 2112,
    "页": 2113,
    "拾": 2114,
    "茄": 2115,
    "兽": 2116,
    "彼": 2117,
    "霍": 2118,
    "殷": 2119,
    "湘": 2120,
    "侯": 2121,
    "淑": 2122,
    "葱": 2123,
    "厌": 2124,
    "鹰": 2125,
    "炉": 2126,
    "赁": 2127,
    "巾": 2128,
    "慕": 2129,
    "逛": 2130,
    "糕": 2131,
    "恼": 2132,
    "滞": 2133,
    "厘": 2134,
    "鹿": 2135,
    "薯": 2136,
    "攀": 2137,
    "棚": 2138,
    "殿": 2139,
    "慨": 2140,
    "幻": 2141,
    "甫": 2142,
    "辟": 2143,
    "蓄": 2144,
    "肢": 2145,
    "惹": 2146,
    "夸": 2147,
    "胀": 2148,
    "婷": 2149,
    "擅": 2150,
    "鞭": 2151,
    "闷": 2152,
    "虫": 2153,
    "欺": 2154,
    "腻": 2155,
    "旭": 2156,
    "剪": 2157,
    "桑": 2158,
    "羽": 2159,
    "仲": 2160,
    "诞": 2161,
    "椒": 2162,
    "穴": 2163,
    "帕": 2164,
    "贼": 2165,
    "呀": 2166,
    "淀": 2167,
    "卿": 2168,
    "鸭": 2169,
    "嫩": 2170,
    "塘": 2171,
    "佟": 2172,
    "渣": 2173,
    "罐": 2174,
    "割": 2175,
    "薛": 2176,
    "虐": 2177,
    "蔓": 2178,
    "弯": 2179,
    "焚": 2180,
    "轩": 2181,
    "膳": 2182,
    "捞": 2183,
    "馈": 2184,
    "畏": 2185,
    "咳": 2186,
    "堡": 2187,
    "帆": 2188,
    "挨": 2189,
    "框": 2190,
    "臂": 2191,
    "饿": 2192,
    "蔽": 2193,
    "拐": 2194,
    "涌": 2195,
    "匆": 2196,
    "仇": 2197,
    "壤": 2198,
    "廊": 2199,
    "绎": 2200,
    "昂": 2201,
    "豚": 2202,
    "晕": 2203,
    "溢": 2204,
    "渤": 2205,
    "葛": 2206,
    "韵": 2207,
    "泳": 2208,
    "舱": 2209,
    "咱": 2210,
    "懈": 2211,
    "蹈": 2212,
    "唇": 2213,
    "袖": 2214,
    "扯": 2215,
    "眉": 2216,
    "甄": 2217,
    "旬": 2218,
    "谊": 2219,
    "巢": 2220,
    "栋": 2221,
    "飘": 2222,
    "驰": 2223,
    "邱": 2224,
    "敦": 2225,
    "勃": 2226,
    "仰": 2227,
    "垫": 2228,
    "爹": 2229,
    "贞": 2230,
    "朵": 2231,
    "桶": 2232,
    "尹": 2233,
    "囊": 2234,
    "兑": 2235,
    "盆": 2236,
    "嘱": 2237,
    "彤": 2238,
    "钉": 2239,
    "凸": 2240,
    "脖": 2241,
    "澡": 2242,
    "枭": 2243,
    "芜": 2244,
    "灿": 2245,
    "颠": 2246,
    "哀": 2247,
    "艘": 2248,
    "踩": 2249,
    "挪": 2250,
    "娥": 2251,
    "罩": 2252,
    "熙": 2253,
    "掏": 2254,
    "谣": 2255,
    "碱": 2256,
    "歪": 2257,
    "傻": 2258,
    "俞": 2259,
    "庸": 2260,
    "娟": 2261,
    "耍": 2262,
    "罢": 2263,
    "柴": 2264,
    "誓": 2265,
    "喻": 2266,
    "剥": 2267,
    "刹": 2268,
    "愁": 2269,
    "浅": 2270,
    "嘛": 2271,
    "殴": 2272,
    "逮": 2273,
    "歇": 2274,
    "犬": 2275,
    "枝": 2276,
    "悟": 2277,
    "勾": 2278,
    "灌": 2279,
    "垂": 2280,
    "菇": 2281,
    "崛": 2282,
    "绵": 2283,
    "斥": 2284,
    "槛": 2285,
    "昭": 2286,
    "庞": 2287,
    "筋": 2288,
    "峻": 2289,
    "罕": 2290,
    "亭": 2291,
    "哦": 2292,
    "醇": 2293,
    "浑": 2294,
    "扒": 2295,
    "腕": 2296,
    "梳": 2297,
    "痰": 2298,
    "舟": 2299,
    "坠": 2300,
    "抄": 2301,
    "慌": 2302,
    "缔": 2303,
    "浆": 2304,
    "畜": 2305,
    "盯": 2306,
    "棒": 2307,
    "钩": 2308,
    "阁": 2309,
    "榄": 2310,
    "谭": 2311,
    "蒂": 2312,
    "遂": 2313,
    "傲": 2314,
    "膏": 2315,
    "驳": 2316,
    "珊": 2317,
    "揽": 2318,
    "惧": 2319,
    "兆": 2320,
    "葡": 2321,
    "踢": 2322,
    "橄": 2323,
    "勘": 2324,
    "豫": 2325,
    "稻": 2326,
    "裹": 2327,
    "龚": 2328,
    "萧": 2329,
    "壳": 2330,
    "斜": 2331,
    "骤": 2332,
    "喂": 2333,
    "逗": 2334,
    "泼": 2335,
    "遮": 2336,
    "慑": 2337,
    "娶": 2338,
    "茜": 2339,
    "捉": 2340,
    "粒": 2341,
    "阐": 2342,
    "痴": 2343,
    "凑": 2344,
    "秒": 2345,
    "趟": 2346,
    "玫": 2347,
    "芦": 2348,
    "肆": 2349,
    "刮": 2350,
    "楠": 2351,
    "皱": 2352,
    "倩": 2353,
    "叉": 2354,
    "鼠": 2355,
    "谎": 2356,
    "抹": 2357,
    "棍": 2358,
    "梨": 2359,
    "葩": 2360,
    "缠": 2361,
    "醋": 2362,
    "祈": 2363,
    "芬": 2364,
    "搏": 2365,
    "吞": 2366,
    "溃": 2367,
    "熬": 2368,
    "淋": 2369,
    "毯": 2370,
    "冤": 2371,
    "顽": 2372,
    "酿": 2373,
    "萄": 2374,
    "耶": 2375,
    "洒": 2376,
    "邸": 2377,
    "羞": 2378,
    "吾": 2379,
    "愉": 2380,
    "侈": 2381,
    "茅": 2382,
    "箭": 2383,
    "蛇": 2384,
    "虹": 2385,
    "悼": 2386,
    "砍": 2387,
    "卸": 2388,
    "瘾": 2389,
    "匙": 2390,
    "勿": 2391,
    "挽": 2392,
    "雇": 2393,
    "羡": 2394,
    "浸": 2395,
    "宙": 2396,
    "荧": 2397,
    "扇": 2398,
    "蒜": 2399,
    "晖": 2400,
    "烹": 2401,
    "碧": 2402,
    "晴": 2403,
    "敛": 2404,
    "鑫": 2405,
    "颂": 2406,
    "喉": 2407,
    "苑": 2408,
    "膀": 2409,
    "嫦": 2410,
    "躁": 2411,
    "衍": 2412,
    "跪": 2413,
    "枢": 2414,
    "碌": 2415,
    "穆": 2416,
    "叛": 2417,
    "潭": 2418,
    "靓": 2419,
    "剖": 2420,
    "僧": 2421,
    "牲": 2422,
    "膝": 2423,
    "削": 2424,
    "谴": 2425,
    "懒": 2426,
    "咽": 2427,
    "绒": 2428,
    "檬": 2429,
    "椰": 2430,
    "彦": 2431,
    "筒": 2432,
    "儒": 2433,
    "帜": 2434,
    "屠": 2435,
    "屁": 2436,
    "隙": 2437,
    "虾": 2438,
    "墩": 2439,
    "咋": 2440,
    "斤": 2441,
    "嬛": 2442,
    "僵": 2443,
    "蝇": 2444,
    "寸": 2445,
    "宰": 2446,
    "撰": 2447,
    "詹": 2448,
    "漆": 2449,
    "谜": 2450,
    "粹": 2451,
    "酱": 2452,
    "逝": 2453,
    "翁": 2454,
    "兔": 2455,
    "瑶": 2456,
    "乙": 2457,
    "瑰": 2458,
    "钥": 2459,
    "橙": 2460,
    "矩": 2461,
    "坝": 2462,
    "扛": 2463,
    "烫": 2464,
    "茂": 2465,
    "痒": 2466,
    "栓": 2467,
    "硝": 2468,
    "鲍": 2469,
    "谅": 2470,
    "狮": 2471,
    "卦": 2472,
    "臀": 2473,
    "渗": 2474,
    "寡": 2475,
    "佐": 2476,
    "瞒": 2477,
    "窄": 2478,
    "墅": 2479,
    "睿": 2480,
    "蕴": 2481,
    "枚": 2482,
    "蕉": 2483,
    "窦": 2484,
    "帘": 2485,
    "沫": 2486,
    "辜": 2487,
    "竭": 2488,
    "秉": 2489,
    "瘤": 2490,
    "昔": 2491,
    "妮": 2492,
    "漠": 2493,
    "亟": 2494,
    "勋": 2495,
    "琪": 2496,
    "娄": 2497,
    "牺": 2498,
    "翠": 2499,
    "炫": 2500,
    "耽": 2501,
    "煎": 2502,
    "阜": 2503,
    "禧": 2504,
    "榆": 2505,
    "蛮": 2506,
    "卵": 2507,
    "菠": 2508,
    "旱": 2509,
    "铲": 2510,
    "煌": 2511,
    "璐": 2512,
    "狭": 2513,
    "氨": 2514,
    "糟": 2515,
    "阱": 2516,
    "屌": 2517,
    "溜": 2518,
    "噩": 2519,
    "耻": 2520,
    "沾": 2521,
    "悍": 2522,
    "蜡": 2523,
    "愧": 2524,
    "鼎": 2525,
    "丛": 2526,
    "讳": 2527,
    "钧": 2528,
    "溶": 2529,
    "泊": 2530,
    "熏": 2531,
    "矫": 2532,
    "赂": 2533,
    "巍": 2534,
    "渭": 2535,
    "诀": 2536,
    "殡": 2537,
    "讶": 2538,
    "俏": 2539,
    "募": 2540,
    "嗽": 2541,
    "郝": 2542,
    "涯": 2543,
    "呕": 2544,
    "锤": 2545,
    "莎": 2546,
    "乾": 2547,
    "沪": 2548,
    "黛": 2549,
    "铀": 2550,
    "寂": 2551,
    "淇": 2552,
    "筱": 2553,
    "骚": 2554,
    "庚": 2555,
    "蹲": 2556,
    "黏": 2557,
    "叮": 2558,
    "宵": 2559,
    "霜": 2560,
    "骄": 2561,
    "邪": 2562,
    "沦": 2563,
    "逊": 2564,
    "兜": 2565,
    "粪": 2566,
    "硫": 2567,
    "甩": 2568,
    "撼": 2569,
    "撕": 2570,
    "饲": 2571,
    "靡": 2572,
    "雯": 2573,
    "夷": 2574,
    "沸": 2575,
    "蒲": 2576,
    "勉": 2577,
    "绊": 2578,
    "粘": 2579,
    "乖": 2580,
    "枕": 2581,
    "耿": 2582,
    "缮": 2583,
    "螺": 2584,
    "馅": 2585,
    "媛": 2586,
    "碟": 2587,
    "粤": 2588,
    "陋": 2589,
    "丘": 2590,
    "衅": 2591,
    "奠": 2592,
    "茎": 2593,
    "函": 2594,
    "堤": 2595,
    "猴": 2596,
    "疤": 2597,
    "冀": 2598,
    "翰": 2599,
    "敷": 2600,
    "桩": 2601,
    "鞍": 2602,
    "丸": 2603,
    "曙": 2604,
    "垄": 2605,
    "匿": 2606,
    "钞": 2607,
    "彪": 2608,
    "赟": 2609,
    "茨": 2610,
    "嘲": 2611,
    "塌": 2612,
    "裔": 2613,
    "蓉": 2614,
    "睐": 2615,
    "酶": 2616,
    "瘫": 2617,
    "驴": 2618,
    "隋": 2619,
    "郅": 2620,
    "绣": 2621,
    "蠕": 2622,
    "囧": 2623,
    "垣": 2624,
    "涩": 2625,
    "潇": 2626,
    "泻": 2627,
    "饥": 2628,
    "铃": 2629,
    "闺": 2630,
    "挫": 2631,
    "衫": 2632,
    "俑": 2633,
    "妓": 2634,
    "邢": 2635,
    "簿": 2636,
    "藤": 2637,
    "皖": 2638,
    "贬": 2639,
    "捏": 2640,
    "磕": 2641,
    "垢": 2642,
    "柠": 2643,
    "鹤": 2644,
    "惟": 2645,
    "逾": 2646,
    "橘": 2647,
    "杠": 2648,
    "魄": 2649,
    "淳": 2650,
    "崩": 2651,
    "恳": 2652,
    "埠": 2653,
    "溯": 2654,
    "绯": 2655,
    "垒": 2656,
    "喘": 2657,
    "兹": 2658,
    "焕": 2659,
    "瑟": 2660,
    "蓬": 2661,
    "鹅": 2662,
    "灶": 2663,
    "侥": 2664,
    "侄": 2665,
    "溺": 2666,
    "挚": 2667,
    "抖": 2668,
    "坎": 2669,
    "怜": 2670,
    "蚀": 2671,
    "晃": 2672,
    "睹": 2673,
    "讽": 2674,
    "奎": 2675,
    "霆": 2676,
    "莞": 2677,
    "炖": 2678,
    "舶": 2679,
    "挟": 2680,
    "玄": 2681,
    "洽": 2682,
    "芽": 2683,
    "鄂": 2684,
    "仕": 2685,
    "袍": 2686,
    "删": 2687,
    "遣": 2688,
    "咒": 2689,
    "屯": 2690,
    "茫": 2691,
    "甸": 2692,
    "妍": 2693,
    "轧": 2694,
    "枯": 2695,
    "剿": 2696,
    "敞": 2697,
    "歹": 2698,
    "扁": 2699,
    "岐": 2700,
    "沛": 2701,
    "萎": 2702,
    "戈": 2703,
    "恭": 2704,
    "崖": 2705,
    "磁": 2706,
    "拌": 2707,
    "嚼": 2708,
    "庾": 2709,
    "枉": 2710,
    "瞄": 2711,
    "谍": 2712,
    "畴": 2713,
    "夯": 2714,
    "濛": 2715,
    "诫": 2716,
    "牟": 2717,
    "雁": 2718,
    "闫": 2719,
    "堕": 2720,
    "暨": 2721,
    "菊": 2722,
    "瞻": 2723,
    "泣": 2724,
    "毙": 2725,
    "攒": 2726,
    "栽": 2727,
    "赃": 2728,
    "弗": 2729,
    "嫖": 2730,
    "億": 2731,
    "祉": 2732,
    "澜": 2733,
    "囤": 2734,
    "睁": 2735,
    "庐": 2736,
    "祛": 2737,
    "寞": 2738,
    "谬": 2739,
    "覃": 2740,
    "咏": 2741,
    "钦": 2742,
    "翘": 2743,
    "蘑": 2744,
    "饶": 2745,
    "辰": 2746,
    "凰": 2747,
    "橡": 2748,
    "刃": 2749,
    "斧": 2750,
    "栈": 2751,
    "棵": 2752,
    "蜗": 2753,
    "卉": 2754,
    "蚌": 2755,
    "伞": 2756,
    "腥": 2757,
    "桐": 2758,
    "蝶": 2759,
    "凄": 2760,
    "冉": 2761,
    "傍": 2762,
    "寝": 2763,
    "荆": 2764,
    "爵": 2765,
    "吏": 2766,
    "舅": 2767,
    "掷": 2768,
    "奕": 2769,
    "蜀": 2770,
    "狐": 2771,
    "碾": 2772,
    "琐": 2773,
    "髓": 2774,
    "糙": 2775,
    "弦": 2776,
    "肴": 2777,
    "铅": 2778,
    "撬": 2779,
    "荤": 2780,
    "拽": 2781,
    "讹": 2782,
    "胰": 2783,
    "阮": 2784,
    "馒": 2785,
    "卑": 2786,
    "昧": 2787,
    "喀": 2788,
    "仆": 2789,
    "疡": 2790,
    "骆": 2791,
    "岂": 2792,
    "膨": 2793,
    "奴": 2794,
    "棺": 2795,
    "衬": 2796,
    "芹": 2797,
    "烁": 2798,
    "亩": 2799,
    "婿": 2800,
    "浊": 2801,
    "暑": 2802,
    "噪": 2803,
    "铮": 2804,
    "俪": 2805,
    "焰": 2806,
    "痘": 2807,
    "斩": 2808,
    "渊": 2809,
    "捆": 2810,
    "藻": 2811,
    "坪": 2812,
    "凳": 2813,
    "嚣": 2814,
    "咎": 2815,
    "哗": 2816,
    "剔": 2817,
    "腌": 2818,
    "辙": 2819,
    "缉": 2820,
    "鞠": 2821,
    "妄": 2822,
    "煽": 2823,
    "嗓": 2824,
    "郡": 2825,
    "畸": 2826,
    "酝": 2827,
    "渎": 2828,
    "鲨": 2829,
    "佑": 2830,
    "躬": 2831,
    "霉": 2832,
    "唾": 2833,
    "藉": 2834,
    "诵": 2835,
    "筛": 2836,
    "盔": 2837,
    "镖": 2838,
    "咐": 2839,
    "拭": 2840,
    "冈": 2841,
    "疚": 2842,
    "杉": 2843,
    "裴": 2844,
    "芒": 2845,
    "憋": 2846,
    "栖": 2847,
    "椎": 2848,
    "葫": 2849,
    "竖": 2850,
    "蹄": 2851,
    "瑜": 2852,
    "吨": 2853,
    "赐": 2854,
    "畔": 2855,
    "坟": 2856,
    "飙": 2857,
    "饺": 2858,
    "株": 2859,
    "咪": 2860,
    "钠": 2861,
    "昕": 2862,
    "闸": 2863,
    "揣": 2864,
    "觅": 2865,
    "迄": 2866,
    "涡": 2867,
    "脊": 2868,
    "诟": 2869,
    "淹": 2870,
    "莓": 2871,
    "啸": 2872,
    "炅": 2873,
    "酵": 2874,
    "枫": 2875,
    "蓓": 2876,
    "杏": 2877,
    "拎": 2878,
    "垮": 2879,
    "蟹": 2880,
    "帐": 2881,
    "樱": 2882,
    "芥": 2883,
    "熄": 2884,
    "嘘": 2885,
    "葆": 2886,
    "轴": 2887,
    "巫": 2888,
    "砂": 2889,
    "钮": 2890,
    "霖": 2891,
    "壶": 2892,
    "嘟": 2893,
    "拢": 2894,
    "梗": 2895,
    "壹": 2896,
    "倦": 2897,
    "雌": 2898,
    "瞧": 2899,
    "渝": 2900,
    "麟": 2901,
    "瞩": 2902,
    "搓": 2903,
    "拧": 2904,
    "铸": 2905,
    "僚": 2906,
    "酚": 2907,
    "蹂": 2908,
    "躏": 2909,
    "雀": 2910,
    "搅": 2911,
    "饪": 2912,
    "苛": 2913,
    "漱": 2914,
    "怠": 2915,
    "稽": 2916,
    "璇": 2917,
    "埔": 2918,
    "豁": 2919,
    "乞": 2920,
    "榕": 2921,
    "抒": 2922,
    "烨": 2923,
    "胳": 2924,
    "疮": 2925,
    "珺": 2926,
    "淤": 2927,
    "蔚": 2928,
    "颅": 2929,
    "佣": 2930,
    "酮": 2931,
    "缸": 2932,
    "晏": 2933,
    "芯": 2934,
    "晦": 2935,
    "缚": 2936,
    "澈": 2937,
    "婕": 2938,
    "膊": 2939,
    "惫": 2940,
    "侮": 2941,
    "烘": 2942,
    "瑛": 2943,
    "磅": 2944,
    "丙": 2945,
    "妖": 2946,
    "凿": 2947,
    "勺": 2948,
    "狄": 2949,
    "磷": 2950,
    "诠": 2951,
    "亢": 2952,
    "篷": 2953,
    "诡": 2954,
    "妾": 2955,
    "翩": 2956,
    "矮": 2957,
    "秆": 2958,
    "暧": 2959,
    "炳": 2960,
    "咀": 2961,
    "窥": 2962,
    "毋": 2963,
    "暇": 2964,
    "靶": 2965,
    "媚": 2966,
    "酥": 2967,
    "皂": 2968,
    "榨": 2969,
    "禄": 2970,
    "翅": 2971,
    "搁": 2972,
    "咧": 2973,
    "饷": 2974,
    "龟": 2975,
    "汀": 2976,
    "庇": 2977,
    "羹": 2978,
    "昼": 2979,
    "湛": 2980,
    "亳": 2981,
    "趴": 2982,
    "橱": 2983,
    "捅": 2984,
    "嘀": 2985,
    "芭": 2986,
    "紊": 2987,
    "樊": 2988,
    "魁": 2989,
    "鸽": 2990,
    "苟": 2991,
    "晤": 2992,
    "茗": 2993,
    "懿": 2994,
    "韧": 2995,
    "猝": 2996,
    "瞎": 2997,
    "坞": 2998,
    "秸": 2999,
    "蛙": 3000,
    "酌": 3001,
    "漓": 3002,
    "嗮": 3003,
    "馍": 3004,
    "捂": 3005,
    "袜": 3006,
    "啃": 3007,
    "蹴": 3008,
    "豹": 3009,
    "嫂": 3010,
    "牡": 3011,
    "窒": 3012,
    "矢": 3013,
    "窟": 3014,
    "囚": 3015,
    "忏": 3016,
    "贱": 3017,
    "恍": 3018,
    "痪": 3019,
    "崭": 3020,
    "逞": 3021,
    "侍": 3022,
    "掠": 3023,
    "笋": 3024,
    "藕": 3025,
    "陡": 3026,
    "蹭": 3027,
    "蟾": 3028,
    "辫": 3029,
    "掺": 3030,
    "骼": 3031,
    "摧": 3032,
    "亨": 3033,
    "铝": 3034,
    "胺": 3035,
    "阀": 3036,
    "憨": 3037,
    "琢": 3038,
    "岚": 3039,
    "擎": 3040,
    "泗": 3041,
    "泸": 3042,
    "姗": 3043,
    "缪": 3044,
    "郜": 3045,
    "唁": 3046,
    "烛": 3047,
    "窘": 3048,
    "棕": 3049,
    "姥": 3050,
    "犀": 3051,
    "虞": 3052,
    "缇": 3053,
    "汲": 3054,
    "貂": 3055,
    "弓": 3056,
    "癖": 3057,
    "瑕": 3058,
    "疵": 3059,
    "杞": 3060,
    "屑": 3061,
    "禾": 3062,
    "绮": 3063,
    "驼": 3064,
    "铐": 3065,
    "肋": 3066,
    "沁": 3067,
    "妒": 3068,
    "栩": 3069,
    "猩": 3070,
    "灼": 3071,
    "啤": 3072,
    "笨": 3073,
    "哇": 3074,
    "獾": 3075,
    "喧": 3076,
    "僻": 3077,
    "浇": 3078,
    "掐": 3079,
    "聂": 3080,
    "踊": 3081,
    "窍": 3082,
    "揪": 3083,
    "靴": 3084,
    "窜": 3085,
    "锣": 3086,
    "籽": 3087,
    "佬": 3088,
    "韬": 3089,
    "弈": 3090,
    "廓": 3091,
    "窨": 3092,
    "槿": 3093,
    "呐": 3094,
    "俯": 3095,
    "哑": 3096,
    "楷": 3097,
    "拇": 3098,
    "彝": 3099,
    "茹": 3100,
    "弛": 3101,
    "翟": 3102,
    "鳌": 3103,
    "拱": 3104,
    "冶": 3105,
    "葵": 3106,
    "棠": 3107,
    "沐": 3108,
    "拷": 3109,
    "谤": 3110,
    "隧": 3111,
    "仑": 3112,
    "哨": 3113,
    "绞": 3114,
    "孜": 3115,
    "镁": 3116,
    "绽": 3117,
    "濒": 3118,
    "蠢": 3119,
    "愕": 3120,
    "捣": 3121,
    "锈": 3122,
    "呛": 3123,
    "蜍": 3124,
    "浏": 3125,
    "捍": 3126,
    "绷": 3127,
    "鸥": 3128,
    "褐": 3129,
    "棘": 3130,
    "嫔": 3131,
    "辄": 3132,
    "驭": 3133,
    "愚": 3134,
    "礁": 3135,
    "磋": 3136,
    "碘": 3137,
    "矶": 3138,
    "驿": 3139,
    "肘": 3140,
    "譬": 3141,
    "峙": 3142,
    "祺": 3143,
    "蔷": 3144,
    "琍": 3145,
    "竣": 3146,
    "诽": 3147,
    "婧": 3148,
    "汝": 3149,
    "蚁": 3150,
    "嬉": 3151,
    "槟": 3152,
    "蛛": 3153,
    "嫉": 3154,
    "祠": 3155,
    "叨": 3156,
    "柄": 3157,
    "孵": 3158,
    "玥": 3159,
    "钾": 3160,
    "缆": 3161,
    "淆": 3162,
    "哺": 3163,
    "禅": 3164,
    "砺": 3165,
    "锯": 3166,
    "撩": 3167,
    "纺": 3168,
    "睦": 3169,
    "箍": 3170,
    "聋": 3171,
    "匀": 3172,
    "骸": 3173,
    "芋": 3174,
    "蹦": 3175,
    "臧": 3176,
    "昊": 3177,
    "沓": 3178,
    "涝": 3179,
    "禀": 3180,
    "枸": 3181,
    "涮": 3182,
    "邂": 3183,
    "逅": 3184,
    "躯": 3185,
    "呷": 3186,
    "泾": 3187,
    "卤": 3188,
    "獒": 3189,
    "硒": 3190,
    "鞣": 3191,
    "宛": 3192,
    "筷": 3193,
    "恪": 3194,
    "睫": 3195,
    "吼": 3196,
    "喇": 3197,
    "滁": 3198,
    "檀": 3199,
    "氢": 3200,
    "稠": 3201,
    "煞": 3202,
    "褥": 3203,
    "缕": 3204,
    "垦": 3205,
    "乒": 3206,
    "堰": 3207,
    "鹭": 3208,
    "悚": 3209,
    "厥": 3210,
    "嵌": 3211,
    "疹": 3212,
    "篱": 3213,
    "凹": 3214,
    "渍": 3215,
    "煲": 3216,
    "栗": 3217,
    "搀": 3218,
    "吟": 3219,
    "乍": 3220,
    "蔗": 3221,
    "凛": 3222,
    "窑": 3223,
    "沣": 3224,
    "眶": 3225,
    "裨": 3226,
    "鲸": 3227,
    "嵩": 3228,
    "唠": 3229,
    "桓": 3230,
    "兢": 3231,
    "冥": 3232,
    "挠": 3233,
    "疴": 3234,
    "腮": 3235,
    "隽": 3236,
    "俐": 3237,
    "悸": 3238,
    "梢": 3239,
    "钰": 3240,
    "琅": 3241,
    "甯": 3242,
    "刁": 3243,
    "曰": 3244,
    "哮": 3245,
    "炜": 3246,
    "倚": 3247,
    "谏": 3248,
    "袱": 3249,
    "辍": 3250,
    "秽": 3251,
    "拙": 3252,
    "喵": 3253,
    "梓": 3254,
    "竿": 3255,
    "蹿": 3256,
    "纬": 3257,
    "匡": 3258,
    "眷": 3259,
    "赡": 3260,
    "罄": 3261,
    "忐": 3262,
    "忑": 3263,
    "煜": 3264,
    "倘": 3265,
    "擒": 3266,
    "矣": 3267,
    "拯": 3268,
    "搂": 3269,
    "苔": 3270,
    "锌": 3271,
    "漩": 3272,
    "徇": 3273,
    "宕": 3274,
    "胱": 3275,
    "滤": 3276,
    "朽": 3277,
    "祀": 3278,
    "柬": 3279,
    "髦": 3280,
    "逍": 3281,
    "毓": 3282,
    "禹": 3283,
    "皓": 3284,
    "疙": 3285,
    "瘩": 3286,
    "颊": 3287,
    "戳": 3288,
    "筮": 3289,
    "篡": 3290,
    "辗": 3291,
    "崎": 3292,
    "揉": 3293,
    "嘎": 3294,
    "榴": 3295,
    "糯": 3296,
    "丫": 3297,
    "荔": 3298,
    "耸": 3299,
    "踹": 3300,
    "绰": 3301,
    "闵": 3302,
    "幢": 3303,
    "嗜": 3304,
    "襟": 3305,
    "俨": 3306,
    "晾": 3307,
    "摁": 3308,
    "诏": 3309,
    "眨": 3310,
    "劈": 3311,
    "缅": 3312,
    "阎": 3313,
    "猖": 3314,
    "笛": 3315,
    "荟": 3316,
    "醛": 3317,
    "隶": 3318,
    "伺": 3319,
    "巅": 3320,
    "蹊": 3321,
    "屹": 3322,
    "楂": 3323,
    "栅": 3324,
    "耘": 3325,
    "悖": 3326,
    "鹦": 3327,
    "厝": 3328,
    "镶": 3329,
    "炙": 3330,
    "颍": 3331,
    "坷": 3332,
    "韭": 3333,
    "狙": 3334,
    "溉": 3335,
    "噬": 3336,
    "溥": 3337,
    "撇": 3338,
    "黯": 3339,
    "礴": 3340,
    "颐": 3341,
    "弋": 3342,
    "娓": 3343,
    "菁": 3344,
    "涤": 3345,
    "懵": 3346,
    "愣": 3347,
    "颤": 3348,
    "沼": 3349,
    "惬": 3350,
    "溅": 3351,
    "咙": 3352,
    "娼": 3353,
    "怯": 3354,
    "攘": 3355,
    "桦": 3356,
    "瀑": 3357,
    "曦": 3358,
    "膛": 3359,
    "鸦": 3360,
    "磺": 3361,
    "忻": 3362,
    "瞪": 3363,
    "蟒": 3364,
    "絮": 3365,
    "岑": 3366,
    "檐": 3367,
    "雍": 3368,
    "衙": 3369,
    "旷": 3370,
    "暮": 3371,
    "儋": 3372,
    "嚷": 3373,
    "圩": 3374,
    "蝴": 3375,
    "婶": 3376,
    "寥": 3377,
    "苯": 3378,
    "嗯": 3379,
    "柚": 3380,
    "姬": 3381,
    "珅": 3382,
    "銮": 3383,
    "诬": 3384,
    "滔": 3385,
    "俘": 3386,
    "稚": 3387,
    "町": 3388,
    "徘": 3389,
    "徊": 3390,
    "笠": 3391,
    "沮": 3392,
    "咯": 3393,
    "匮": 3394,
    "焊": 3395,
    "宥": 3396,
    "泓": 3397,
    "阖": 3398,
    "瓣": 3399,
    "唏": 3400,
    "郫": 3401,
    "缭": 3402,
    "汶": 3403,
    "榔": 3404,
    "涕": 3405,
    "爪": 3406,
    "戎": 3407,
    "鳞": 3408,
    "鹉": 3409,
    "冗": 3410,
    "螃": 3411,
    "瀚": 3412,
    "迸": 3413,
    "槐": 3414,
    "氯": 3415,
    "彷": 3416,
    "哽": 3417,
    "扼": 3418,
    "稼": 3419,
    "褒": 3420,
    "梭": 3421,
    "犁": 3422,
    "洼": 3423,
    "恃": 3424,
    "踵": 3425,
    "汹": 3426,
    "亵": 3427,
    "贮": 3428,
    "棱": 3429,
    "舜": 3430,
    "朔": 3431,
    "噱": 3432,
    "羁": 3433,
    "挛": 3434,
    "徙": 3435,
    "讪": 3436,
    "粟": 3437,
    "踝": 3438,
    "猥": 3439,
    "赣": 3440,
    "藩": 3441,
    "腑": 3442,
    "珀": 3443,
    "癫": 3444,
    "瑾": 3445,
    "狡": 3446,
    "獗": 3447,
    "钊": 3448,
    "跷": 3449,
    "蛎": 3450,
    "瞿": 3451,
    "芸": 3452,
    "鳄": 3453,
    "寇": 3454,
    "黔": 3455,
    "匝": 3456,
    "匕": 3457,
    "琰": 3458,
    "涣": 3459,
    "脐": 3460,
    "轸": 3461,
    "浚": 3462,
    "惚": 3463,
    "萱": 3464,
    "兮": 3465,
    "霄": 3466,
    "厮": 3467,
    "峥": 3468,
    "摒": 3469,
    "匾": 3470,
    "芷": 3471,
    "奚": 3472,
    "痉": 3473,
    "徨": 3474,
    "戍": 3475,
    "娩": 3476,
    "蔑": 3477,
    "陇": 3478,
    "帷": 3479,
    "痹": 3480,
    "韶": 3481,
    "寰": 3482,
    "遴": 3483,
    "甥": 3484,
    "萃": 3485,
    "氰": 3486,
    "缀": 3487,
    "墟": 3488,
    "氮": 3489,
    "茵": 3490,
    "惋": 3491,
    "「": 3492,
    "粱": 3493,
    "拂": 3494,
    "叭": 3495,
    "灞": 3496,
    "俺": 3497,
    "迭": 3498,
    "唬": 3499,
    "恤": 3500,
    "莆": 3501,
    "隅": 3502,
    "蝎": 3503,
    "」": 3504,
    "乓": 3505,
    "菱": 3506,
    "袒": 3507,
    "诿": 3508,
    "酗": 3509,
    "惮": 3510,
    "孚": 3511,
    "砌": 3512,
    "奄": 3513,
    "绚": 3514,
    "钝": 3515,
    "穗": 3516,
    "涧": 3517,
    "昵": 3518,
    "熠": 3519,
    "骇": 3520,
    "拴": 3521,
    "娴": 3522,
    "沥": 3523,
    "嗡": 3524,
    "殃": 3525,
    "屉": 3526,
    "绥": 3527,
    "芙": 3528,
    "蜘": 3529,
    "杖": 3530,
    "肛": 3531,
    "珈": 3532,
    "顷": 3533,
    "襄": 3534,
    "祟": 3535,
    "锵": 3536,
    "迦": 3537,
    "埇": 3538,
    "衮": 3539,
    "酯": 3540,
    "梧": 3541,
    "颓": 3542,
    "盏": 3543,
    "睾": 3544,
    "狸": 3545,
    "趾": 3546,
    "谩": 3547,
    "斋": 3548,
    "妞": 3549,
    "砰": 3550,
    "跻": 3551,
    "荫": 3552,
    "璧": 3553,
    "赘": 3554,
    "腋": 3555,
    "匠": 3556,
    "搡": 3557,
    "慷": 3558,
    "卒": 3559,
    "眯": 3560,
    "惦": 3561,
    "挎": 3562,
    "苇": 3563,
    "瞠": 3564,
    "悴": 3565,
    "翊": 3566,
    "呗": 3567,
    "懊": 3568,
    "笙": 3569,
    "绅": 3570,
    "迥": 3571,
    "憧": 3572,
    "憬": 3573,
    "哎": 3574,
    "蚕": 3575,
    "锥": 3576,
    "遛": 3577,
    "骥": 3578,
    "坍": 3579,
    "秧": 3580,
    "赓": 3581,
    "鲤": 3582,
    "摹": 3583,
    "釜": 3584,
    "尧": 3585,
    "晟": 3586,
    "琨": 3587,
    "矜": 3588,
    "庶": 3589,
    "屎": 3590,
    "烯": 3591,
    "哟": 3592,
    "漪": 3593,
    "烙": 3594,
    "璋": 3595,
    "溧": 3596,
    "吆": 3597,
    "孰": 3598,
    "霁": 3599,
    "拣": 3600,
    "跋": 3601,
    "簧": 3602,
    "澎": 3603,
    "丞": 3604,
    "憔": 3605,
    "驯": 3606,
    "渺": 3607,
    "璀": 3608,
    "诧": 3609,
    "姣": 3610,
    "铿": 3611,
    "恬": 3612,
    "滕": 3613,
    "鞘": 3614,
    "叁": 3615,
    "啼": 3616,
    "硅": 3617,
    "钳": 3618,
    "陂": 3619,
    "茉": 3620,
    "皑": 3621,
    "婊": 3622,
    "轶": 3623,
    "掸": 3624,
    "厄": 3625,
    "冕": 3626,
    "埂": 3627,
    "甙": 3628,
    "喃": 3629,
    "馋": 3630,
    "妊": 3631,
    "嗅": 3632,
    "袂": 3633,
    "伎": 3634,
    "哩": 3635,
    "瘙": 3636,
    "褪": 3637,
    "聆": 3638,
    "茬": 3639,
    "骅": 3640,
    "羲": 3641,
    "囹": 3642,
    "圄": 3643,
    "骋": 3644,
    "痼": 3645,
    "瞰": 3646,
    "娠": 3647,
    "嗑": 3648,
    "肮": 3649,
    "濡": 3650,
    "仝": 3651,
    "赦": 3652,
    "焉": 3653,
    "芗": 3654,
    "媲": 3655,
    "笃": 3656,
    "羚": 3657,
    "祯": 3658,
    "妤": 3659,
    "喋": 3660,
    "酪": 3661,
    "惶": 3662,
    "眺": 3663,
    "炬": 3664,
    "撮": 3665,
    "龈": 3666,
    "咕": 3667,
    "饽": 3668,
    "眩": 3669,
    "跤": 3670,
    "瓯": 3671,
    "捶": 3672,
    "遐": 3673,
    "钵": 3674,
    "妩": 3675,
    "狩": 3676,
    "绢": 3677,
    "漯": 3678,
    "裘": 3679,
    "邋": 3680,
    "剃": 3681,
    "枞": 3682,
    "懦": 3683,
    "倔": 3684,
    "抨": 3685,
    "赎": 3686,
    "帛": 3687,
    "簇": 3688,
    "珉": 3689,
    "伽": 3690,
    "斐": 3691,
    "暄": 3692,
    "罹": 3693,
    "雏": 3694,
    "姊": 3695,
    "涅": 3696,
    "凋": 3697,
    "亥": 3698,
    "菅": 3699,
    "觑": 3700,
    "浒": 3701,
    "燹": 3702,
    "喑": 3703,
    "搪": 3704,
    "佼": 3705,
    "啪": 3706,
    "夭": 3707,
    "衢": 3708,
    "疱": 3709,
    "幔": 3710,
    "邯": 3711,
    "糗": 3712,
    "祁": 3713,
    "臆": 3714,
    "鲟": 3715,
    "烬": 3716,
    "瘀": 3717,
    "俸": 3718,
    "呻": 3719,
    "窖": 3720,
    "匣": 3721,
    "炊": 3722,
    "诅": 3723,
    "斓": 3724,
    "尉": 3725,
    "淌": 3726,
    "戮": 3727,
    "拗": 3728,
    "柑": 3729,
    "犒": 3730,
    "璞": 3731,
    "岱": 3732,
    "俚": 3733,
    "扳": 3734,
    "歆": 3735,
    "抠": 3736,
    "郸": 3737,
    "痫": 3738,
    "罍": 3739,
    "迢": 3740,
    "螂": 3741,
    "鲈": 3742,
    "篓": 3743,
    "砚": 3744,
    "峦": 3745,
    "瓢": 3746,
    "胫": 3747,
    "葳": 3748,
    "麒": 3749,
    "蜕": 3750,
    "舷": 3751,
    "泵": 3752,
    "焯": 3753,
    "霓": 3754,
    "骰": 3755,
    "缰": 3756,
    "钗": 3757,
    "莺": 3758,
    "盅": 3759,
    "嗨": 3760,
    "诙": 3761,
    "筐": 3762,
    "蔼": 3763,
    "炕": 3764,
    "祷": 3765,
    "毗": 3766,
    "汕": 3767,
    "骁": 3768,
    "摞": 3769,
    "渲": 3770,
    "皿": 3771,
    "偎": 3772,
    "漾": 3773,
    "佚": 3774,
    "蘸": 3775,
    "笆": 3776,
    "琛": 3777,
    "潢": 3778,
    "悻": 3779,
    "螨": 3780,
    "燎": 3781,
    "痔": 3782,
    "吝": 3783,
    "淅": 3784,
    "蛟": 3785,
    "俶": 3786,
    "帚": 3787,
    "捎": 3788,
    "蝉": 3789,
    "寅": 3790,
    "鞅": 3791,
    "瑄": 3792,
    "弧": 3793,
    "烽": 3794,
    "憩": 3795,
    "湃": 3796,
    "拮": 3797,
    "峨": 3798,
    "胚": 3799,
    "笈": 3800,
    "荼": 3801,
    "袄": 3802,
    "璨": 3803,
    "酣": 3804,
    "莽": 3805,
    "蚊": 3806,
    "泱": 3807,
    "斡": 3808,
    "斟": 3809,
    "咻": 3810,
    "掂": 3811,
    "珏": 3812,
    "涟": 3813,
    "镂": 3814,
    "薏": 3815,
    "敖": 3816,
    "潍": 3817,
    "蔺": 3818,
    "镯": 3819,
    "叱": 3820,
    "惺": 3821,
    "遁": 3822,
    "幌": 3823,
    "岖": 3824,
    "熔": 3825,
    "珂": 3826,
    "掖": 3827,
    "诛": 3828,
    "茸": 3829,
    "鸳": 3830,
    "窿": 3831,
    "哉": 3832,
    "鄙": 3833,
    "褚": 3834,
    "孽": 3835,
    "瞌": 3836,
    "茧": 3837,
    "抉": 3838,
    "铤": 3839,
    "阂": 3840,
    "盂": 3841,
    "谚": 3842,
    "抡": 3843,
    "焙": 3844,
    "缢": 3845,
    "脯": 3846,
    "椁": 3847,
    "酆": 3848,
    "邃": 3849,
    "昱": 3850,
    "峭": 3851,
    "朦": 3852,
    "胧": 3853,
    "蟑": 3854,
    "痣": 3855,
    "椭": 3856,
    "轼": 3857,
    "汛": 3858,
    "幡": 3859,
    "蚂": 3860,
    "闱": 3861,
    "宦": 3862,
    "蜷": 3863,
    "焱": 3864,
    "嘻": 3865,
    "阙": 3866,
    "猕": 3867,
    "惭": 3868,
    "谌": 3869,
    "镀": 3870,
    "罔": 3871,
    "炀": 3872,
    "珞": 3873,
    "潼": 3874,
    "拈": 3875,
    "喔": 3876,
    "蝠": 3877,
    "邨": 3878,
    "裆": 3879,
    "锹": 3880,
    "遢": 3881,
    "逄": 3882,
    "栾": 3883,
    "臻": 3884,
    "鳗": 3885,
    "赝": 3886,
    "釉": 3887,
    "恕": 3888,
    "沱": 3889,
    "荞": 3890,
    "哼": 3891,
    "腼": 3892,
    "腆": 3893,
    "邑": 3894,
    "喳": 3895,
    "酋": 3896,
    "颌": 3897,
    "蛀": 3898,
    "蹬": 3899,
    "谑": 3900,
    "嚏": 3901,
    "筠": 3902,
    "垵": 3903,
    "痊": 3904,
    "寐": 3905,
    "浐": 3906,
    "淼": 3907,
    "嘿": 3908,
    "薰": 3909,
    "砾": 3910,
    "铛": 3911,
    "咚": 3912,
    "弩": 3913,
    "愫": 3914,
    "啧": 3915,
    "冽": 3916,
    "岔": 3917,
    "蕊": 3918,
    "挝": 3919,
    "涸": 3920,
    "樵": 3921,
    "瑚": 3922,
    "熹": 3923,
    "桨": 3924,
    "砥": 3925,
    "荠": 3926,
    "谙": 3927,
    "咤": 3928,
    "贰": 3929,
    "矸": 3930,
    "捌": 3931,
    "瞭": 3932,
    "喆": 3933,
    "诋": 3934,
    "塚": 3935,
    "矗": 3936,
    "佘": 3937,
    "猾": 3938,
    "诣": 3939,
    "裳": 3940,
    "鱿": 3941,
    "箕": 3942,
    "猿": 3943,
    "镌": 3944,
    "琉": 3945,
    "鸵": 3946,
    "嘈": 3947,
    "秤": 3948,
    "攸": 3949,
    "褶": 3950,
    "掰": 3951,
    "攥": 3952,
    "唉": 3953,
    "痿": 3954,
    "榻": 3955,
    "陀": 3956,
    "麓": 3957,
    "劾": 3958,
    "痈": 3959,
    "囿": 3960,
    "剁": 3961,
    "绛": 3962,
    "噢": 3963,
    "趸": 3964,
    "鼾": 3965,
    "锏": 3966,
    "吱": 3967,
    "嗔": 3968,
    "喽": 3969,
    "庵": 3970,
    "垚": 3971,
    "稞": 3972,
    "茁": 3973,
    "鸯": 3974,
    "虏": 3975,
    "唆": 3976,
    "粑": 3977,
    "瀛": 3978,
    "毽": 3979,
    "歼": 3980,
    "榷": 3981,
    "囱": 3982,
    "岿": 3983,
    "籁": 3984,
    "傩": 3985,
    "癣": 3986,
    "腭": 3987,
    "袅": 3988,
    "伶": 3989,
    "砒": 3990,
    "粳": 3991,
    "泞": 3992,
    "圭": 3993,
    "辘": 3994,
    "羌": 3995,
    "娆": 3996,
    "吩": 3997,
    "鳍": 3998,
    "蝙": 3999,
    "隍": 4000,
    "汩": 4001,
    "簸": 4002,
    "拄": 4003,
    "秃": 4004,
    "觥": 4005,
    "麝": 4006,
    "忡": 4007,
    "舵": 4008,
    "倭": 4009,
    "萤": 4010,
    "苋": 4011,
    "啄": 4012,
    "霏": 4013,
    "邬": 4014,
    "筼": 4015,
    "筜": 4016,
    "撂": 4017,
    "焖": 4018,
    "靳": 4019,
    "炯": 4020,
    "皙": 4021,
    "晗": 4022,
    "嗦": 4023,
    "擂": 4024,
    "鳅": 4025,
    "旌": 4026,
    "嗣": 4027,
    "锄": 4028,
    "坯": 4029,
    "菩": 4030,
    "樽": 4031,
    "堃": 4032,
    "瞟": 4033,
    "莠": 4034,
    "瘪": 4035,
    "坂": 4036,
    "鬓": 4037,
    "漷": 4038,
    "鄱": 4039,
    "樟": 4040,
    "碚": 4041,
    "嘌": 4042,
    "呤": 4043,
    "叽": 4044,
    "氟": 4045,
    "婢": 4046,
    "侑": 4047,
    "痤": 4048,
    "珑": 4049,
    "恣": 4050,
    "诤": 4051,
    "篆": 4052,
    "攫": 4053,
    "崽": 4054,
    "搐": 4055,
    "曳": 4056,
    "玖": 4057,
    "扉": 4058,
    "咄": 4059,
    "咫": 4060,
    "丐": 4061,
    "榭": 4062,
    "沌": 4063,
    "儆": 4064,
    "驹": 4065,
    "袤": 4066,
    "疥": 4067,
    "锴": 4068,
    "窈": 4069,
    "窕": 4070,
    "黝": 4071,
    "桠": 4072,
    "蹒": 4073,
    "跚": 4074,
    "骡": 4075,
    "纫": 4076,
    "桢": 4077,
    "篪": 4078,
    "兀": 4079,
    "驸": 4080,
    "潸": 4081,
    "郴": 4082,
    "氡": 4083,
    "蚝": 4084,
    "涎": 4085,
    "燮": 4086,
    "脓": 4087,
    "濮": 4088,
    "醺": 4089,
    "鹃": 4090,
    "嚎": 4091,
    "舔": 4092,
    "骛": 4093,
    "滇": 4094,
    "忿": 4095,
    "蝗": 4096,
    "虔": 4097,
    "萦": 4098,
    "瘢": 4099,
    "帼": 4100,
    "纰": 4101,
    "缎": 4102,
    "纭": 4103,
    "沂": 4104,
    "剽": 4105,
    "瘠": 4106,
    "旻": 4107,
    "盹": 4108,
    "晔": 4109,
    "踉": 4110,
    "跄": 4111,
    "姝": 4112,
    "慵": 4113,
    "舀": 4114,
    "坨": 4115,
    "戌": 4116,
    "痢": 4117,
    "桔": 4118,
    "逯": 4119,
    "柒": 4120,
    "峯": 4121,
    "踞": 4122,
    "纾": 4123,
    "亓": 4124,
    "伫": 4125,
    "锲": 4126,
    "甭": 4127,
    "羔": 4128,
    "璜": 4129,
    "夙": 4130,
    "恙": 4131,
    "眸": 4132,
    "淝": 4133,
    "隘": 4134,
    "怅": 4135,
    "汞": 4136,
    "昙": 4137,
    "潺": 4138,
    "稷": 4139,
    "亘": 4140,
    "挞": 4141,
    "匍": 4142,
    "匐": 4143,
    "谛": 4144,
    "甬": 4145,
    "汐": 4146,
    "囔": 4147,
    "臃": 4148,
    "棣": 4149,
    "灸": 4150,
    "荻": 4151,
    "掬": 4152,
    "讷": 4153,
    "鸠": 4154,
    "嘶": 4155,
    "戛": 4156,
    "啬": 4157,
    "颞": 4158,
    "蔻": 4159,
    "婪": 4160,
    "於": 4161,
    "惰": 4162,
    "卞": 4163,
    "掣": 4164,
    "犊": 4165,
    "眈": 4166,
    "皋": 4167,
    "潞": 4168,
    "蕙": 4169,
    "忱": 4170,
    "蜿": 4171,
    "蜒": 4172,
    "镑": 4173,
    "苕": 4174,
    "赭": 4175,
    "恽": 4176,
    "柩": 4177,
    "筏": 4178,
    "扪": 4179,
    "莘": 4180,
    "髋": 4181,
    "飚": 4182,
    "麸": 4183,
    "陨": 4184,
    "琥": 4185,
    "磐": 4186,
    "吭": 4187,
    "蹋": 4188,
    "斛": 4189,
    "苷": 4190,
    "捭": 4191,
    "裱": 4192,
    "冢": 4193,
    "廿": 4194,
    "匈": 4195,
    "掳": 4196,
    "芮": 4197,
    "叩": 4198,
    "豌": 4199,
    "胯": 4200,
    "哆": 4201,
    "孪": 4202,
    "蛤": 4203,
    "朕": 4204,
    "吮": 4205,
    "牒": 4206,
    "嗝": 4207,
    "跺": 4208,
    "嬷": 4209,
    "洱": 4210,
    "竺": 4211,
    "娣": 4212,
    "睬": 4213,
    "潋": 4214,
    "伢": 4215,
    "瞅": 4216,
    "阚": 4217,
    "梵": 4218,
    "垕": 4219,
    "邝": 4220,
    "楔": 4221,
    "牀": 4222,
    "叵": 4223,
    "锉": 4224,
    "苓": 4225,
    "睑": 4226,
    "玺": 4227,
    "谆": 4228,
    "惴": 4229,
    "嶂": 4230,
    "铎": 4231,
    "遨": 4232,
    "谲": 4233,
    "舛": 4234,
    "殆": 4235,
    "缤": 4236,
    "韪": 4237,
    "嗲": 4238,
    "琵": 4239,
    "噔": 4240,
    "觊": 4241,
    "觎": 4242,
    "讴": 4243,
    "茴": 4244,
    "阉": 4245,
    "糅": 4246,
    "烩": 4247,
    "鹜": 4248,
    "殉": 4249,
    "噼": 4250,
    "烱": 4251,
    "蛰": 4252,
    "耷": 4253,
    "饵": 4254,
    "瑙": 4255,
    "苡": 4256,
    "贻": 4257,
    "獠": 4258,
    "殓": 4259,
    "掮": 4260,
    "荃": 4261,
    "壅": 4262,
    "涓": 4263,
    "沅": 4264,
    "鬃": 4265,
    "诩": 4266,
    "缄": 4267,
    "蜇": 4268,
    "迂": 4269,
    "場": 4270,
    "芪": 4271,
    "徜": 4272,
    "徉": 4273,
    "讥": 4274,
    "箴": 4275,
    "鳖": 4276,
    "谧": 4277,
    "蜥": 4278,
    "烃": 4279,
    "侏": 4280,
    "畈": 4281,
    "咭": 4282,
    "枇": 4283,
    "杷": 4284,
    "聿": 4285,
    "笺": 4286,
    "踱": 4287,
    "內": 4288,
    "泮": 4289,
    "龛": 4290,
    "偕": 4291,
    "蛊": 4292,
    "呦": 4293,
    "毡": 4294,
    "仟": 4295,
    "镉": 4296,
    "胭": 4297,
    "樑": 4298,
    "恸": 4299,
    "馥": 4300,
    "丕": 4301,
    "稣": 4302,
    "玷": 4303,
    "讧": 4304,
    "壑": 4305,
    "腩": 4306,
    "靑": 4307,
    "萼": 4308,
    "濉": 4309,
    "禺": 4310,
    "鹌": 4311,
    "鹑": 4312,
    "咿": 4313,
    "殒": 4314,
    "酰": 4315,
    "邛": 4316,
    "崃": 4317,
    "捺": 4318,
    "珐": 4319,
    "仨": 4320,
    "撵": 4321,
    "诃": 4322,
    "筝": 4323,
    "噎": 4324,
    "闾": 4325,
    "矾": 4326,
    "瓴": 4327,
    "谯": 4328,
    "衩": 4329,
    "馊": 4330,
    "烷": 4331,
    "蹩": 4332,
    "苞": 4333,
    "峪": 4334,
    "毂": 4335,
    "锃": 4336,
    "锚": 4337,
    "扈": 4338,
    "蜻": 4339,
    "啰": 4340,
    "妳": 4341,
    "遑": 4342,
    "箩": 4343,
    "谟": 4344,
    "湄": 4345,
    "胤": 4346,
    "襦": 4347,
    "佰": 4348,
    "葚": 4349,
    "煳": 4350,
    "殇": 4351,
    "煊": 4352,
    "飓": 4353,
    "纂": 4354,
    "砝": 4355,
    "枷": 4356,
    "镳": 4357,
    "琶": 4358,
    "缨": 4359,
    "颚": 4360,
    "蒡": 4361,
    "霹": 4362,
    "雳": 4363,
    "柘": 4364,
    "赅": 4365,
    "氓": 4366,
    "昉": 4367,
    "螯": 4368,
    "揖": 4369,
    "饬": 4370,
    "锂": 4371,
    "珩": 4372,
    "湍": 4373,
    "菘": 4374,
    "箫": 4375,
    "笕": 4376,
    "沚": 4377,
    "蹑": 4378,
    "楹": 4379,
    "衽": 4380,
    "霭": 4381,
    "犷": 4382,
    "颧": 4383,
    "蠡": 4384,
    "盎": 4385,
    "涿": 4386,
    "缜": 4387,
    "惆": 4388,
    "腱": 4389,
    "饯": 4390,
    "膺": 4391,
    "鸾": 4392,
    "洙": 4393,
    "诲": 4394,
    "蜴": 4395,
    "踮": 4396,
    "陛": 4397,
    "菏": 4398,
    "蓦": 4399,
    "龋": 4400,
    "尕": 4401,
    "澍": 4402,
    "烊": 4403,
    "瞳": 4404,
    "狰": 4405,
    "狞": 4406,
    "佯": 4407,
    "诨": 4408,
    "睢": 4409,
    "缛": 4410,
    "翌": 4411,
    "偌": 4412,
    "俅": 4413,
    "桧": 4414,
    "鲫": 4415,
    "瘟": 4416,
    "啜": 4417,
    "蛆": 4418,
    "孑": 4419,
    "栉": 4420,
    "铬": 4421,
    "橇": 4422,
    "楞": 4423,
    "燊": 4424,
    "倖": 4425,
    "劭": 4426,
    "滦": 4427,
    "逵": 4428,
    "剐": 4429,
    "張": 4430,
    "螳": 4431,
    "蜈": 4432,
    "馬": 4433,
    "硼": 4434,
    "嗞": 4435,
    "擞": 4436,
    "槁": 4437,
    "蜚": 4438,
    "璠": 4439,
    "怔": 4440,
    "驮": 4441,
    "玟": 4442,
    "胥": 4443,
    "沏": 4444,
    "椿": 4445,
    "迩": 4446,
    "紛": 4447,
    "宸": 4448,
    "硚": 4449,
    "汊": 4450,
    "硌": 4451,
    "憎": 4452,
    "殚": 4453,
    "侬": 4454,
    "怆": 4455,
    "噶": 4456,
    "瓮": 4457,
    "栎": 4458,
    "轱": 4459,
    "绺": 4460,
    "谒": 4461,
    "咔": 4462,
    "嚓": 4463,
    "郢": 4464,
    "舸": 4465,
    "卟": 4466,
    "溏": 4467,
    "辇": 4468,
    "脍": 4469,
    "哒": 4470,
    "唧": 4471,
    "戾": 4472,
    "镕": 4473,
    "怂": 4474,
    "荪": 4475,
    "簪": 4476,
    "萋": 4477,
    "怏": 4478,
    "渚": 4479,
    "栢": 4480,
    "嵘": 4481,
    "撷": 4482,
    "濠": 4483,
    "髻": 4484,
    "刨": 4485,
    "叼": 4486,
    "漕": 4487,
    "肓": 4488,
    "淞": 4489,
    "呱": 4490,
    "梆": 4491,
    "绫": 4492,
    "槌": 4493,
    "镛": 4494,
    "噜": 4495,
    "苜": 4496,
    "蓿": 4497,
    "鹊": 4498,
    "蜃": 4499,
    "癀": 4500,
    "噻": 4501,
    "噤": 4502,
    "孺": 4503,
    "呇": 4504,
    "锰": 4505,
    "峇": 4506,
    "馁": 4507,
    "芘": 4508,
    "幄": 4509,
    "谪": 4510,
    "铨": 4511,
    "蓟": 4512,
    "鼬": 4513,
    "藐": 4514,
    "痂": 4515,
    "稗": 4516,
    "炽": 4517,
    "焘": 4518,
    "罡": 4519,
    "揆": 4520,
    "瞥": 4521,
    "圃": 4522,
    "钼": 4523,
    "悯": 4524,
    "泯": 4525,
    "褂": 4526,
    "阪": 4527,
    "跛": 4528,
    "嬅": 4529,
    "琏": 4530,
    "翡": 4531,
    "碴": 4532,
    "弑": 4533,
    "俾": 4534,
    "颦": 4535,
    "哧": 4536,
    "蜓": 4537,
    "汾": 4538,
    "墉": 4539,
    "耆": 4540,
    "瘸": 4541,
    "昝": 4542,
    "啉": 4543,
    "渥": 4544,
    "麈": 4545,
    "镣": 4546,
    "麾": 4547,
    "纶": 4548,
    "睽": 4549,
    "巳": 4550,
    "擢": 4551,
    "磬": 4552,
    "塬": 4553,
    "嬗": 4554,
    "钛": 4555,
    "垭": 4556,
    "粽": 4557,
    "馏": 4558,
    "鸩": 4559,
    "贲": 4560,
    "垡": 4561,
    "鏖": 4562,
    "孀": 4563,
    "濑": 4564,
    "岷": 4565,
    "溟": 4566,
    "谄": 4567,
    "婀": 4568,
    "嘹": 4569,
    "焗": 4570,
    "喹": 4571,
    "陲": 4572,
    "肽": 4573,
    "後": 4574,
    "弭": 4575,
    "麽": 4576,
    "辕": 4577,
    "嶝": 4578,
    "補": 4579,
    "將": 4580,
    "咲": 4581,
    "膻": 4582,
    "厐": 4583,
    "揶": 4584,
    "揄": 4585,
    "饕": 4586,
    "菔": 4587,
    "琓": 4588,
    "鳕": 4589,
    "潦": 4590,
    "碶": 4591,
    "跬": 4592,
    "矍": 4593,
    "铄": 4594,
    "啕": 4595,
    "杈": 4596,
    "嗖": 4597,
    "咂": 4598,
    "榈": 4599,
    "吠": 4600,
    "茏": 4601,
    "谶": 4602,
    "臊": 4603,
    "琊": 4604,
    "寮": 4605,
    "姘": 4606,
    "岌": 4607,
    "現": 4608,
    "帧": 4609,
    "黍": 4610,
    "闿": 4611,
    "箔": 4612,
    "桀": 4613,
    "囍": 4614,
    "旮": 4615,
    "旯": 4616,
    "蟊": 4617,
    "鎏": 4618,
    "涪": 4619,
    "疣": 4620,
    "钜": 4621,
    "铢": 4622,
    "谕": 4623,
    "糠": 4624,
    "芎": 4625,
    "飒": 4626,
    "麋": 4627,
    "堽": 4628,
    "伉": 4629,
    "弼": 4630,
    "蛾": 4631,
    "蕨": 4632,
    "桎": 4633,
    "梏": 4634,
    "咛": 4635,
    "氹": 4636,
    "瘁": 4637,
    "瓘": 4638,
    "疸": 4639,
    "鹍": 4640,
    "膘": 4641,
    "戟": 4642,
    "嗒": 4643,
    "铧": 4644,
    "襁": 4645,
    "褓": 4646,
    "蕲": 4647,
    "壬": 4648,
    "阑": 4649,
    "惘": 4650,
    "淦": 4651,
    "咆": 4652,
    "飏": 4653,
    "莅": 4654,
    "晁": 4655,
    "巿": 4656,
    "逋": 4657,
    "璟": 4658,
    "旎": 4659,
    "嗪": 4660,
    "凇": 4661,
    "娲": 4662,
    "闰": 4663,
    "铆": 4664,
    "蒿": 4665,
    "卯": 4666,
    "枋": 4667,
    "荀": 4668,
    "纨": 4669,
    "佶": 4670,
    "堑": 4671,
    "烔": 4672,
    "哐": 4673,
    "吒": 4674,
    "巽": 4675,
    "粕": 4676,
    "捋": 4677,
    "喱": 4678,
    "袴": 4679,
    "糜": 4680,
    "呜": 4681,
    "褛": 4682,
    "實": 4683,
    "佃": 4684,
    "碉": 4685,
    "湉": 4686,
    "採": 4687,
    "馄": 4688,
    "饨": 4689,
    "漉": 4690,
    "翀": 4691,
    "藜": 4692,
    "犟": 4693,
    "鳔": 4694,
    "岫": 4695,
    "煸": 4696,
    "诰": 4697,
    "舐": 4698,
    "玒": 4699,
    "鹞": 4700,
    "荚": 4701,
    "葺": 4702,
    "翎": 4703,
    "芍": 4704,
    "皴": 4705,
    "杳": 4706,
    "來": 4707,
    "煦": 4708,
    "仄": 4709,
    "鬟": 4710,
    "熨": 4711,
    "踌": 4712,
    "躇": 4713,
    "碜": 4714,
    "恫": 4715,
    "飨": 4716,
    "肱": 4717,
    "擘": 4718,
    "锒": 4719,
    "癞": 4720,
    "蟆": 4721,
    "佞": 4722,
    "璎": 4723,
    "恻": 4724,
    "鲢": 4725,
    "斫": 4726,
    "扽": 4727,
    "窠": 4728,
    "衘": 4729,
    "啻": 4730,
    "骊": 4731,
    "芡": 4732,
    "墒": 4733,
    "榛": 4734,
    "怦": 4735,
    "彗": 4736,
    "脘": 4737,
    "蝌": 4738,
    "蚪": 4739,
    "橹": 4740,
    "侗": 4741,
    "孢": 4742,
    "祎": 4743,
    "龊": 4744,
    "掇": 4745,
    "揍": 4746,
    "陉": 4747,
    "蹙": 4748,
    "菰": 4749,
    "旖": 4750,
    "帑": 4751,
    "為": 4752,
    "啖": 4753,
    "黩": 4754,
    "別": 4755,
    "淬": 4756,
    "壕": 4757,
    "痞": 4758,
    "羯": 4759,
    "鲧": 4760,
    "杼": 4761,
    "黠": 4762,
    "唢": 4763,
    "羿": 4764,
    "忪": 4765,
    "奂": 4766,
    "撅": 4767,
    "鄴": 4768,
    "槃": 4769,
    "粿": 4770,
    "狈": 4771,
    "绔": 4772,
    "嗤": 4773,
    "猬": 4774,
    "怵": 4775,
    "殁": 4776,
    "剌": 4777,
    "鄞": 4778,
    "滹": 4779,
    "珲": 4780,
    "锟": 4781,
    "亶": 4782,
    "埕": 4783,
    "遒": 4784,
    "祚": 4785,
    "庥": 4786,
    "锶": 4787,
    "橛": 4788,
    "戰": 4789,
    "翱": 4790,
    "鄧": 4791,
    "韋": 4792,
    "發": 4793,
    "佝": 4794,
    "偻": 4795,
    "牍": 4796,
    "胛": 4797,
    "椽": 4798,
    "盥": 4799,
    "毎": 4800,
    "淸": 4801,
    "蕃": 4802,
    "垸": 4803,
    "畿": 4804,
    "抿": 4805,
    "懽": 4806,
    "夔": 4807,
    "帔": 4808,
    "硖": 4809,
    "枧": 4810,
    "餮": 4811,
    "镔": 4812,
    "畊": 4813,
    "臾": 4814,
    "瓤": 4815,
    "茯": 4816,
    "楫": 4817,
    "馐": 4818,
    "廪": 4819,
    "稹": 4820,
    "翯": 4821,
    "婵": 4822,
    "嬴": 4823,
    "郦": 4824,
    "纣": 4825,
    "菀": 4826,
    "荨": 4827,
    "糍": 4828,
    "韓": 4829,
    "網": 4830,
    "對": 4831,
    "賢": 4832,
    "還": 4833,
    "澹": 4834,
    "茭": 4835,
    "禥": 4836,
    "镫": 4837,
    "禤": 4838,
    "薷": 4839,
    "犄": 4840,
    "汴": 4841,
    "瑀": 4842,
    "鬻": 4843,
    "沤": 4844,
    "畲": 4845,
    "沽": 4846,
    "徵": 4847,
    "锓": 4848,
    "碣": 4849,
    "砻": 4850,
    "翮": 4851,
    "牠": 4852,
    "渌": 4853,
    "鲶": 4854,
    "跸": 4855,
    "垠": 4856,
    "镠": 4857,
    "茆": 4858,
    "锭": 4859,
    "嵎": 4860,
    "耄": 4861,
    "耋": 4862,
    "茔": 4863,
    "嫡": 4864,
    "柷": 4865,
    "晌": 4866,
    "浣": 4867,
    "藁": 4868,
    "牦": 4869,
    "抻": 4870,
    "膈": 4871,
    "湮": 4872,
    "谳": 4873,
    "锱": 4874,
    "曜": 4875,
    "傥": 4876,
    "仞": 4877,
    "嘭": 4878,
    "咦": 4879,
    "恹": 4880,
    "穹": 4881,
    "蹚": 4882,
    "荸": 4883,
    "秭": 4884,
    "顼": 4885,
    "錾": 4886,
    "脔": 4887,
    "傀": 4888,
    "儡": 4889,
    "龌": 4890,
    "赈": 4891,
    "篦": 4892,
    "谥": 4893,
    "猗": 4894,
    "涔": 4895,
    "鞑": 4896,
    "蟠": 4897,
    "耙": 4898,
    "滢": 4899,
    "萁": 4900,
    "畠": 4901,
    "糌": 4902,
    "寔": 4903,
    "隨": 4904,
    "飕": 4905,
    "聩": 4906,
    "莊": 4907,
    "簋": 4908,
    "嗷": 4909,
    "氤": 4910,
    "氲": 4911,
    "綦": 4912,
    "裬": 4913,
    "赊": 4914,
    "捱": 4915,
    "邕": 4916,
    "瘘": 4917,
    "戉": 4918,
    "曈": 4919,
    "皎": 4920,
    "缃": 4921,
    "査": 4922,
    "揾": 4923,
    "渑": 4924,
    "間": 4925,
    "碽": 4926,
    "狒": 4927,
    "稱": 4928,
    "佔": 4929,
    "憶": 4930,
    "蓮": 4931,
    "溴": 4932,
    "疝": 4933,
    "烜": 4934,
    "溱": 4935,
    "铂": 4936,
    "妲": 4937,
    "逑": 4938,
    "礒": 4939,
    "婺": 4940,
    "嘬": 4941,
    "黒": 4942,
    "泷": 4943,
    "鲱": 4944,
    "扦": 4945,
    "啐": 4946,
    "呸": 4947,
    "粄": 4948,
    "虱": 4949,
    "硏": 4950,
    "墁": 4951,
    "涞": 4952,
    "芊": 4953,
    "疟": 4954,
    "粼": 4955,
    "湎": 4956,
    "醪": 4957,
    "毖": 4958,
    "铡": 4959,
    "礤": 4960,
    "歷": 4961,
    "奭": 4962,
    "妪": 4963,
    "湟": 4964,
    "挲": 4965,
    "跹": 4966,
    "萩": 4967,
    "佢": 4968,
    "哋": 4969,
    "嘅": 4970,
    "郯": 4971,
    "蜢": 4972,
    "癯": 4973,
    "偃": 4974,
    "嘞": 4975,
    "蹇": 4976,
    "贽": 4977,
    "彧": 4978,
    "诘": 4979,
    "惇": 4980,
    "蕻": 4981,
    "绀": 4982,
    "醚": 4983,
    "糨": 4984,
    "龃": 4985,
    "龉": 4986,
    "芩": 4987,
    "國": 4988,
    "熱": 4989,
    "強": 4990,
    "顯": 4991,
    "撸": 4992,
    "铉": 4993,
    "妯": 4994,
    "娌": 4995,
    "焐": 4996,
    "娭": 4997,
    "毑": 4998,
    "藠": 4999,
    "蓼": 5000,
    "邡": 5001,
    "鸫": 5002,
    "樯": 5003,
    "谀": 5004,
    "敝": 5005,
    "粝": 5006,
    "鳜": 5007,
    "篝": 5008,
    "悱": 5009,
    "搔": 5010,
    "靚": 5011,
    "槊": 5012,
    "伧": 5013,
    "祢": 5014,
    "鲑": 5015,
    "缈": 5016,
    "绶": 5017,
    "锢": 5018,
    "盱": 5019,
    "眙": 5020,
    "鄢": 5021,
    "骜": 5022,
    "菖": 5023,
    "甑": 5024,
    "蜱": 5025,
    "猷": 5026,
    "珣": 5027,
    "忾": 5028,
    "塾": 5029,
    "鄠": 5030,
    "贇": 5031,
    "峤": 5032,
    "煺": 5033,
    "瓠": 5034,
    "罂": 5035,
    "姹": 5036,
    "霎": 5037,
    "蚤": 5038,
    "莴": 5039,
    "蚓": 5040,
    "叟": 5041,
    "帏": 5042,
    "腓": 5043,
    "篼": 5044,
    "褫": 5045,
    "祗": 5046,
    "铠": 5047,
    "麼": 5048,
    "準": 5049,
    "鹧": 5050,
    "鸪": 5051,
    "淠": 5052,
    "醴": 5053,
    "貉": 5054,
    "皈": 5055,
    "杩": 5056,
    "槎": 5057,
    "爰": 5058,
    "赙": 5059,
    "忒": 5060,
    "颛": 5061,
    "谗": 5062,
    "捃": 5063,
    "玳": 5064,
    "徕": 5065,
    "昇": 5066,
    "郾": 5067,
    "骞": 5068,
    "馔": 5069,
    "蠹": 5070,
    "靼": 5071,
    "篑": 5072,
    "辔": 5073,
    "啷": 5074,
    "翚": 5075,
    "戊": 5076,
    "恿": 5077,
    "赳": 5078,
    "砟": 5079,
    "娑": 5080,
    "啾": 5081,
    "豺": 5082,
    "呓": 5083,
    "剜": 5084,
    "嶙": 5085,
    "峋": 5086,
    "從": 5087,
    "種": 5088,
    "變": 5089,
    "刍": 5090,
    "翥": 5091,
    "迳": 5092,
    "鵰": 5093,
    "柁": 5094,
    "鸢": 5095,
    "厩": 5096,
    "鸨": 5097,
    "噌": 5098,
    "邈": 5099,
    "瘴": 5100,
    "痨": 5101,
    "開": 5102,
    "讓": 5103,
    "鄯": 5104,
    "砷": 5105,
    "揩": 5106,
    "雉": 5107,
    "筆": 5108,
    "暢": 5109,
    "觀": 5110,
    "眾": 5111,
    "傳": 5112,
    "蹉": 5113,
    "跎": 5114,
    "蛔": 5115,
    "艄": 5116,
    "艮": 5117,
    "鑑": 5118,
    "侔": 5119,
    "勅": 5120,
    "卅": 5121,
    "鸷": 5122,
    "淄": 5123,
    "瘗": 5124,
    "篁": 5125,
    "僜": 5126,
    "燚": 5127,
    "倜": 5128,
    "鲵": 5129,
    "趔": 5130,
    "趄": 5131,
    "疽": 5132,
    "啮": 5133,
    "劇": 5134,
    "數": 5135,
    "漸": 5136,
    "琯": 5137,
    "垛": 5138,
    "鲡": 5139,
    "鲮": 5140,
    "瞾": 5141,
    "庖": 5142,
    "聒": 5143,
    "氦": 5144,
    "檄": 5145,
    "孳": 5146,
    "罘": 5147,
    "嘣": 5148,
    "蓥": 5149,
    "瑸": 5150,
    "菴": 5151,
    "诔": 5152,
    "擗": 5153,
    "耦": 5154,
    "诒": 5155,
    "骝": 5156,
    "靧": 5157,
    "笤": 5158,
    "阈": 5159,
    "蛉": 5160,
    "蝼": 5161,
    "睪": 5162,
    "趵": 5163,
    "敕": 5164,
    "酏": 5165,
    "饎": 5166,
    "饩": 5167,
    "眢": 5168,
    "掞": 5169,
    "檩": 5170,
    "钯": 5171,
    "觞": 5172,
    "棂": 5173,
    "氽": 5174,
    "驷": 5175,
    "兩": 5176,
    "據": 5177,
    "裡": 5178,
    "頻": 5179,
    "關": 5180,
    "羸": 5181,
    "懑": 5182,
    "醍": 5183,
    "醐": 5184,
    "舂": 5185,
    "抭": 5186,
    "谝": 5187,
    "栀": 5188,
    "祕": 5189,
    "垆": 5190,
    "谔": 5191,
    "蘅": 5192,
    "蒌": 5193,
    "揠": 5194,
    "庹": 5195,
    "漶": 5196,
    "柞": 5197,
    "婳": 5198,
    "瞑": 5199,
    "浜": 5200,
    "靜": 5201,
    "濂": 5202,
    "钺": 5203,
    "岘": 5204,
    "焜": 5205,
    "嘤": 5206,
    "呖": 5207,
    "骠": 5208,
    "捻": 5209,
    "虢": 5210,
    "绦": 5211,
    "嗳": 5212,
    "喟": 5213,
    "箧": 5214,
    "澧": 5215,
    "彟": 5216,
    "蚶": 5217,
    "蛏": 5218,
    "蠓": 5219,
    "倌": 5220,
    "锞": 5221,
    "擀": 5222,
    "葭": 5223,
    "穰": 5224,
    "鼐": 5225,
    "媾": 5226,
    "囯": 5227,
    "牞": 5228,
    "僮": 5229,
    "舁": 5230,
    "呃": 5231,
    "娉": 5232,
    "骐": 5233,
    "懋": 5234,
    "坳": 5235,
    "孃": 5236,
    "札": 5237,
    "忖": 5238,
    "恁": 5239,
    "沔": 5240,
    "畦": 5241,
    "嗟": 5242,
    "滟": 5243,
    "筵": 5244,
    "蚯": 5245,
    "砭": 5246,
    "鲅": 5247,
    "娈": 5248,
    "鹫": 5249,
    "唑": 5250,
    "姮": 5251,
    "篙": 5252,
    "逡": 5253,
    "掴": 5254,
    "疁": 5255,
    "肄": 5256,
    "佺": 5257,
    "旸": 5258,
    "郄": 5259,
    "崑": 5260,
    "胄": 5261,
    "湜": 5262,
    "邽": 5263,
    "瑁": 5264,
    "磡": 5265,
    "榘": 5266,
    "鹈": 5267,
    "鹕": 5268,
    "琚": 5269,
    "妁": 5270,
    "浔": 5271,
    "燧": 5272,
    "霈": 5273,
    "眦": 5274,
    "黧": 5275,
    "晳": 5276,
    "邺": 5277,
    "邠": 5278,
    "毬": 5279,
    "幞": 5280,
    "蛞": 5281,
    "蝓": 5282,
    "磴": 5283,
    "腠": 5284,
    "幺": 5285,
    "榊": 5286,
    "暌": 5287,
    "椤": 5288,
    "刽": 5289,
    "缦": 5290,
    "頔": 5291,
    "啵": 5292,
    "钣": 5293,
    "漢": 5294,
    "佗": 5295,
    "偲": 5296,
    "陞": 5297,
    "宓": 5298,
    "痍": 5299,
    "祐": 5300,
    "凊": 5301,
    "汭": 5302,
    "樨": 5303,
    "圹": 5304,
    "蹶": 5305,
    "鳝": 5306,
    "蛹": 5307,
    "黃": 5308,
    "進": 5309,
    "減": 5310,
    "質": 5311,
    "柰": 5312,
    "扞": 5313,
    "袈": 5314,
    "裟": 5315,
    "恓": 5316,
    "鲷": 5317,
    "铯": 5318,
    "殄": 5319,
    "褴": 5320,
    "弁": 5321,
    "豉": 5322,
    "癸": 5323,
    "辎": 5324,
    "檫": 5325,
    "琬": 5326,
    "昶": 5327,
    "炷": 5328,
    "業": 5329,
    "絆": 5330,
    "喬": 5331,
    "阆": 5332,
    "楣": 5333,
    "岙": 5334,
    "罷": 5335,
    "寶": 5336,
    "級": 5337,
    "藝": 5338,
    "術": 5339,
    "墊": 5340,
    "錄": 5341,
    "當": 5342,
    "幾": 5343,
    "難": 5344,
    "們": 5345,
    "這": 5346,
    "個": 5347,
    "並": 5348,
    "優": 5349,
    "勢": 5350,
    "會": 5351,
    "備": 5352,
    "過": 5353,
    "經": 5354,
    "謠": 5355,
    "絕": 5356,
    "請": 5357,
    "單": 5358,
    "尋": 5359,
    "繹": 5360,
    "曉": 5361,
    "線": 5362,
    "領": 5363,
    "彌": 5364,
    "遺": 5365,
    "隊": 5366,
    "蘋": 5367,
    "樂": 5368,
    "園": 5369,
    "傣": 5370,
    "旃": 5371,
    "鬲": 5372,
    "澙": 5373,
    "蚵": 5374,
    "藿": 5375,
    "鳏": 5376,
    "抔": 5377,
    "镰": 5378,
    "泔": 5379,
    "鹣": 5380,
    "鲽": 5381,
    "泅": 5382,
    "唳": 5383,
    "酉": 5384,
    "樜": 5385,
    "缱": 5386,
    "绻": 5387,
    "腈": 5388,
    "疒": 5389,
    "镞": 5390,
    "芫": 5391,
    "荽": 5392,
    "摭": 5393,
    "阍": 5394,
    "媪": 5395,
    "視": 5396,
    "陳": 5397,
    "飾": 5398,
    "襞": 5399,
    "镊": 5400,
    "豇": 5401,
    "摈": 5402,
    "熺": 5403,
    "伝": 5404,
    "蔵": 5405,
    "蕈": 5406,
    "陟": 5407,
    "俎": 5408,
    "歙": 5409,
    "敎": 5410,
    "骶": 5411,
    "蜊": 5412,
    "璏": 5413,
    "乂": 5414,
    "艿": 5415,
    "吲": 5416,
    "哚": 5417,
    "璆": 5418,
    "搧": 5419,
    "髹": 5420,
    "霰": 5421,
    "窸": 5422,
    "窣": 5423,
    "钒": 5424,
    "祾": 5425,
    "邴": 5426,
    "圜": 5427,
    "悭": 5428,
    "鮟": 5429,
    "鱇": 5430,
    "茕": 5431,
    "舫": 5432,
    "淙": 5433,
    "苫": 5434,
    "咩": 5435,
    "昀": 5436,
    "茌": 5437,
    "砀": 5438,
    "怄": 5439,
    "欷": 5440,
    "歔": 5441,
    "珮": 5442,
    "孱": 5443,
    "桅": 5444,
    "畛": 5445,
    "冴": 5446,
    "堀": 5447,
    "慄": 5448,
    "鲲": 5449,
    "遆": 5450,
    "虬": 5451,
    "醣": 5452,
    "鬈": 5453
  }
}